#version: 0.2
c h
d e
e r
e i
u n
s t
e n</w>
s ch
a n
e n
e r</w>
l i
a u
d i
a r
un d</w>
de r</w>
c h</w>
i n
o r
g e
a l
d e</w>
i n</w>
ei n
a t
r i
v o
di e</w>
r o
i sch
b e
r e
s i
e l
o n
m i
d a</w>
i s
u r
t e</w>
a n</w>
i s</w>
un g</w>
i m</w>
r a
w i
1 9
d a
h o
b er
e t
s p
v er
de n</w>
de s</w>
vo n</w>
e s</w>
b a
o l
a m
s s
t i
r ei
2 0
l a
z u
l e
h r
w e
n e
s e
o n</w>
g en</w>
l an
m a
t en</w>
t e
b i
v o</w>
n a
ei n</w>
g i
en t
l o
a f
w o
a b
u t
a m</w>
h e
da s</w>
t er
f ü
li e
c k
n i
r u
mi t</w>
li ch
isch en</w>
g e</w>
m m
is t</w>
g t</w>
ein e</w>
a d
s t</w>
de r
vo m</w>
isch e</w>
au s</w>
g en
z ei
w ei
m o
au f</w>
de m</w>
h i
f i
z i
n o
w a
k o
20 0
h ei
h n
sch i
b u
l e</w>
g r
l u
au s
v i
t a
at i
m ar
ch t</w>
s e</w>
h an
un g
t t
m e
st e
s o
m u
m an
t o
r an
j o
j a
h a
u m</w>
w er
t er</w>
ri e
ä n
st i
fü r</w>
1 8
ü n
h er
u m
k i
sch af
st o
au f
de n
or t
u l
b ur
b o
c o
d o
g er
s ei
ch t
p o
el l
b is</w>
e l</w>
f a
b er</w>
p ro
l ei
z u</w>
k a
li n
20 1
ch te</w>
s s</w>
19 9
st ad
ch en</w>
g ra
k an
f e
w ur
g er</w>
be i</w>
zu m</w>
li ch</w>
e s
ge m
ch e</w>
de ut
lie gt</w>
u s</w>
b n</w>
ge schi
z w
isch n</w>
s in
or t</w>
3 -
al s</w>
b en</w>
p f
s a
h r</w>
b ei
st er
s am
s en
ö r
c k</w>
an d</w>
u r</w>
p p
f t</w>
f ran
v a
ho d</w>
si ch</w>
l l
is bn</w>
i t
ba ch</w>
f or
p ar
st a
si e</w>
h l
b en
u a
wi r
st e</w>
g n
ung s
lan d</w>
g o
r ä
gem ein
deut sch
un gen</w>
ber g</w>
wur de</w>
f f
geschi chte</w>
e m
ba y
0 0</w>
t he
w al
ver la
n or
h t</w>
st ro
stad t</w>
d or
et z
na ch</w>
d n</w>
zu r</w>
a s</w>
g ro
b r
en n
w ar
t z
er i
t s
ein er</w>
g an
m en
bay er
k t</w>
s an</w>
al l
k on
h ar
wo hn
k t
bur g</w>
g a
verla g</w>
lan d
k ar
q u
d ur
g u
wa r</w>
ü r
st en</w>
t ei
lich e</w>
f in
k un
ja hr
ä r
p i
f o
19 8
e a
ne u
schaf t</w>
ge bi
p a
t en
ch n
19 7
m ün
v or
h e</w>
m in
sei t</w>
b t</w>
bu ch</w>
b ar
st ä
h n</w>
s .</w>
t n</w>
re gi
l ung</w>
ati on
an d
sp i
b au
z e
un ter
s k
sch ri
' n</w>
no ch</w>
t z</w>
l ä
s ch</w>
en z
s ü
s u
er n
e t</w>
l er</w>
d t</w>
we st
an a</w>
t s</w>
w el
sin d</w>
ki r
e m</w>
m et
a r</w>
m on
un i
1 7
w en
mi t
de s
si e
p er
man n</w>
rei ch
un d
k l
b li
t ra
k rei
ol o
c a
m a</w>
g s
isch er</w>
r in
o is</w>
b a</w>
g a</w>
or i
h al
bi l
sp ra
ch i
ü ber</w>
a t</w>
k ö
j e
dur ch</w>
ri ch</w>
st ra
dor f</w>
1 5
g mo
au ch</w>
t a</w>
st ell
s on
l at
f lu
w a</w>
zw ischen</w>
x i
wir d</w>
g ar
is ch</w>
m at
k a</w>
sch e</w>
a d</w>
f el
m p
k e</w>
fi a</w>
f re
de a</w>
n er</w>
h ö
1 0
h au
v in
fü hr
po li
s an
de t</w>
er t</w>
t ung</w>
gro ß
p t
o ber
zei t</w>
h l</w>
f ol
s el
ko mm
g l
na ch
be t
s -
an n
d u
mi d</w>
f en</w>
d an
m en</w>
sto d</w>
t h
r au
p h
n am
d ar
19 6
sch en</w>
d re
c i
ste ht</w>
mu si
ne stro
s o</w>
k ri
w ä
in g</w>
f rie
lich en</w>
ge l
a u</w>
1 6
l k
k ti
s y
ein em</w>
b un
t ä
o b
e u
1 2
ü ber
w or
k ei
h el
k at
ati on</w>
ein en</w>
ö ster
ü ck
jo han
j u
d ung</w>
st er</w>
k e
z a
di n
p u
g ri
s en</w>
sp ro
wi en
gebi et</w>
z en
er n</w>
r at
z o
a l</w>
1 4
f rei
st or
al e</w>
wi e</w>
sch o
g n</w>
ho f</w>
an t
k in
m er
g ru
wi l
p et
ch en
a a</w>
w in
ro n
pro vin
g lei
gr enz
k u
h en
b and</w>
st ei
hei m</w>
ge s
mün chen</w>
1 3
ha t</w>
zei chn
wi en</w>
st u
mi tt
l au
m ü
p hi
zw ischn</w>
k ul
h aus</w>
m an</w>
s ein</w>
hei t</w>
d l
. 0
f t
ä u
gemein de</w>
a ch
ei h
s si
sam m
st n</w>
te t</w>
s er
de l
gi bt</w>
19 5
i a</w>
c ar
sü d
n ation
sta at
b in
w ol
8 -
19 4
ri t
a f</w>
ch ri
r ö
h ein
o der</w>
m ei
spi el
ß e</w>
wi e
w is
ro p
h aus
k m
isch es</w>
dre i</w>
li n</w>
g re
m e</w>
be zi
in n
h u
di e
h en</w>
d ua
han d
k lo
h un
f f</w>
hi stor
i hr
nor d
k en</w>
el le</w>
b e</w>
z ent
s eine</w>
b ru
ho l
n at
h in
rei ch</w>
l än
k m</w>
ch n</w>
t u
nestro y</w>
an der
ni cht</w>
ge b
p re
o i
sch u
r ü
ein wohn
le ben</w>
d at
i ch</w>
un ter</w>
un t
sp e
di es
be fin
ä l
ne t</w>
er ung</w>
s al
ch ti
ver si
ss en</w>
ch a
ö st
gi e</w>
f er
g lie
ta li
mi li
g ab
zei t
ut z
sch lo
ss e</w>
provin z</w>
a li
k ur
gr ün
jahr e</w>
. .</w>
s a</w>
ein es</w>
n e</w>
har d</w>
b re
h ör
bun des
vo r</w>
l i</w>
l a</w>
en d</w>
r e</w>
p ri
bayer n</w>
regi on</w>
da ss</w>
wo a</w>
en de</w>
ch er</w>
al e
g s</w>
in s
p ol
the at
a k
st ein</w>
a g</w>
schri ft</w>
s etz
on i
g ung</w>
ß t</w>
ber t</w>
wi ck
9 7
ja hr</w>
ch ar
ar bei
te x
gan g</w>
st at
v al
t ur
t t</w>
e a</w>
b an
1 .</w>
p rä
ba hn
de it
mu se
k to
a g
öster reich
hau pt
flu ss</w>
en g
mu s</w>
vo lk
o f</w>
on s</w>
f u
johan n</w>
i d
en s</w>
19 3
wien er</w>
jo se
1 -
ber ei
v e
la ge</w>
ge or
ber g
z wei
ss t</w>
et wa</w>
v e</w>
sch rei
kar l</w>
f ra
bi bli
ar i
mar k
m er</w>
her r
f en
zu a</w>
k ro
ea sch
s i</w>
m or
k am
he u
er te</w>
samm lung</w>
s ol
n ur</w>
h am
wor n</w>
.0 00</w>
ent sp
0 -
t or
st ri
kei t</w>
k la
tei l</w>
ni e
in ter
se e</w>
frie d
19 1
kö ni
fel d</w>
stä d
ho i
f ri
bibli o
st and</w>
han s</w>
fran z</w>
deutsch en</w>
c a</w>
ent wick
fa hr
en t</w>
spra che</w>
no ch
t re
musi k</w>
t an
n u
d ru
o s</w>
f l
d on
se i</w>
ri cht
mitt el
i tali
p e
m ö
wis sen
ho f
d s</w>
s ä
f ur
o f
g ol
am eri
h ab
se l</w>
kir che</w>
on en</w>
ki lo
k rie
ber lin</w>
pet er</w>
au to
c o</w>
a b</w>
wer k</w>
19 2
der t</w>
ti on</w>
n ei
b isch
gru pp
d r
b ri
wohn a</w>
s er</w>
ort stei
k re
st ar
co mm
f lä
t -
so zi
2 2
eu rop
ch ten</w>
b or
schi e
deutsch e</w>
ar chi
tä t</w>
pu bli
te m
gmo a</w>
ge l</w>
stra ße</w>
mi d
kilo met
bu ch
wei ter
o p
le xi
z we
3- 8
z ä
wel t
jo ar</w>
ho ch
w o</w>
n o</w>
k ol
ti k</w>
si tz</w>
f e</w>
er e</w>
t ische</w>
li ter
h er</w>
st ü
man n
2 5
te i</w>
o gra
tei l
te l</w>
ba u</w>
uni versi
kan n
fran k
biblio the
wir t
p lat
l etz
ru m</w>
200 5</w>
wol f
stad t
d o</w>
aus ge
200 6</w>
km ²</w>
k on</w>
ge s</w>
olo gie</w>
f un
t ho
st re
eih wohna</w>
' s</w>
wer den</w>
t ro
schaf t
er s</w>
d i</w>
c e</w>
be l
p h</w>
g te</w>
em ber</w>
b ü
a s
k er</w>
wi a</w>
der n</w>
t n
i i</w>
h m</w>
e he
97 8-
de l</w>
lu d
6 -
st ein
sch n</w>
ger u
al t
200 1</w>
d n
st än
o r</w>
gr und
c on
m är
g in
al p
ö ff
2 3
bibliothe k</w>
f an
ein i
200 4</w>
ar t</w>
lich n</w>
fi zi
w an
geru fen</w>
fi l
co unt
w ör
ung a</w>
n en</w>
an ge
o st
b ro
b ra
au gu
a ch</w>
er en</w>
be zeichn
grenz t</w>
g o</w>
lexi kon</w>
krei s</w>
schri f
p un
jahr hun
isch -
f ern
de z
z en</w>
v at
mi cha
l li
ge hör
dua ch</w>
wel t</w>
v ö
r a</w>
nation al
h å
e x
di en
0 0
re cht
si tz
l n</w>
gab e</w>
ab gerufen</w>
muse um</w>
ges ell
3- 4
staat s
lud wi
t h</w>
for m
200 8</w>
z e</w>
sti mm
li a
e i</w>
sch e
no v
komm un
br un
we an</w>
t on</w>
ste i</w>
fe st
sch en
zä hl
zei ch
or te</w>
l en
j ul
i r
fran z
19 0
wi chti
gr ö
st an
sch wei
sch au
200 7</w>
t rä
l le</w>
min i
m al
richt ung</w>
o kto
gemein den</w>
die se</w>
au ß
t on
o tt
micha el</w>
er -
sei te</w>
ma in</w>
krei s
201 0</w>
ol f</w>
j un
ei sen
an i
l on
i d</w>
f al
ta l</w>
p au
o s
be kann
in e</w>
ge gen
g -
f er</w>
comm ons</w>
er s
lan des
we g</w>
pf ar
jul i</w>
isch a</w>
gr und</w>
mar i
enn t</w>
2 0</w>
st a</w>
sch ni
ar e</w>
t ri
i hr</w>
f rü
zu sam
ort stei</w>
n a</w>
k ü
h af
g ei
ch s</w>
bei m</w>
b d</w>
volk s
l ö
fried rich</w>
mar t
ma i</w>
m m</w>
g ö
fre d</w>
ch e
mit glie
i .</w>
ameri kan
at ur</w>
lin g</w>
ut t
hå t</w>
zwe i</w>
se p
f ä
entsp rin
2 4
in s</w>
c ol
ber n
wä hr
mm a</w>
m ä
k en
ab er</w>
zei tung</w>
sp ä
ba hn</w>
b ung</w>
un ta
st ati
r en
n ä
in a</w>
ge sam
st am
sch ö
st .</w>
n r</w>
haus en</w>
g y
g '
w ür
v .</w>
un ta</w>
mar ia</w>
ll er</w>
hei li
wi es
v a</w>
mm er</w>
i t</w>
ho li
fur t</w>
count y</w>
at e</w>
ho m</w>
hi l
ge mark
bezi r
we b
kun st
in gen</w>
ihr e</w>
h or
glei ch
e di
d -
1 0</w>
v an</w>
k al
d ra
an e</w>
olo g
kat holi
h men</w>
18 3
nie der
ni k</w>
n ör
k te</w>
a k</w>
stro ß</w>
führ ung</w>
wo an</w>
st and
k af
ge sch
y s</w>
stän di
ck e</w>
wal d</w>
wa s</w>
spro ch</w>
kun st</w>
a .</w>
ss er
itali en
4 -
me hr
d u</w>
d s
2 7
wolf gang</w>
t el
r und</w>
li ni
k s
hn e</w>
h m
h le</w>
ber ger</w>
ba ch
3 0
wur den</w>
s einer</w>
of fizi
dies er</w>
di en</w>
b rei
p rei
p an
befin det</w>
al le</w>
st ück
sel b
s at
ru ss
re cht</w>
deutsch land</w>
9 -
200 2</w>
ka is
gesell schaft</w>
5 0</w>
neu e</w>
k or
grö ß
aus gabe</w>
zeich net</w>
wi ad</w>
sch lu
mu t</w>
hr s
gen de</w>
augu st</w>
v er</w>
r o</w>
ma s</w>
c u
2 6
si d
i l
ck t</w>
bayer ischen</w>
h d</w>
en z</w>
zent rum</w>
wal ter</w>
mm t</w>
kul tur
einwohn er</w>
e -
200 9</w>
öster reich</w>
vi er</w>
um a</w>
o da</w>
li ste</w>
j a</w>
h äu
h at
fa mili
2 8
1 5</w>
sch ul
nach bar
lich er</w>
le ben
for sch
b ran
ar d</w>
' m</w>
sy ste
rö m
rau m</w>
199 1</w>
wil hel
j an
entsprin gt</w>
el l</w>
3- 9
utt gar
t ur</w>
st uttgar
p at
n es</w>
auf lage</w>
200 3</w>
wer d</w>
vö lk
sch la
re publi
ort s
on s
nam e</w>
men t</w>
ei gen
5 -
201 4</w>
z a</w>
la s</w>
ko mp
jun i</w>
ho t</w>
201 1</w>
1 2</w>
v en
ma li
h än
g al
be gri
ß en</w>
stell t</w>
sep tem
s bach</w>
p f</w>
ch ter</w>
bet rie
b al
a i
ver wal
t es</w>
stell ung</w>
schaf ten</w>
ludwi g</w>
le hr
k ra
heu te</w>
geor g</w>
e g
5 0
201 5</w>
199 8</w>
z ü
sch w
p ort
ott o</w>
l en</w>
ber i
18 4
v ab
ss n</w>
spi el</w>
schlo ss</w>
m b
sp r
sch ei
pro gra
18 9
sto o
ss en
ss el
sp re
e ben
d rei
1 .
ti g</w>
mar kt
c or
we g
st al
ss er</w>
sp u
k o</w>
fo i
et t
dur ch
do ch</w>
be steht</w>
4 4
pun kt</w>
nat ur
me hr</w>
land kreis</w>
gemein de
fü r
f lie
bisch of</w>
ann t</w>
1 6</w>
k enn
h am</w>
gmo ana</w>
fi a
hein rich</w>
führ t</w>
3 3
2 -
setz t</w>
na m</w>
bi r
1 8</w>
y er</w>
war en</w>
ut h</w>
tt er</w>
s n</w>
par k</w>
g d</w>
200 0</w>
vi er
sto d
di sche</w>
r ein
p or
nör d
h .</w>
chri st
18 6
stuttgar t</w>
sch ä
dez ember</w>
an ti
st ru
s on</w>
lan g</w>
kan n</w>
j ä
au m</w>
a c
wör ter
on e</w>
o g
mär z</w>
dan n</w>
ma in
k ün
jose f</w>
ell en</w>
di et
an o</w>
z er</w>
p p</w>
l ü
g lich</w>
en d
c e
bur g
z w</w>
vo i
republi k</w>
m s</w>
gi b
g keit</w>
at en</w>
öff ent
schaf ts
mi e</w>
k s</w>
ch a</w>
199 6</w>
wilhel m</w>
wei se</w>
t y
de mo
7 -
son der
sch war
j or
b zw</w>
z burg</w>
theat er</w>
ge ben</w>
co m
1 1</w>
zi g</w>
t hi
t he</w>
scho ft</w>
ol a</w>
lin e</w>
h äl
d ri
br au
201 2</w>
universi tät</w>
ss a
o p</w>
kommun e</w>
h ü
car l</w>
b ür
18 8
s mus</w>
p ra
p l
ne d</w>
m au
f ar
z er
we sten</w>
tho mas</w>
s n
on a</w>
in form
b lo
u a</w>
sch we
re li
r än
k el
eri e</w>
er ste</w>
ch er
b ö
ge gen</w>
ation en</w>
ze u
phi e</w>
nam en</w>
kun de</w>
et t</w>
d ort</w>
199 7</w>
te te</w>
st ische</w>
l es</w>
k um
k r
er fol
di re
bo a
ar ti
18 5
we ad</w>
t ungs
sch ein
k el</w>
hi er</w>
groß e</w>
bezeichn ung</w>
3 0</w>
wer ke</w>
frank furt</w>
for m</w>
europ ä
di ale
a -
za hl
w ort</w>
l l</w>
kti on</w>
kre u
entwick lung</w>
u s-
sch er</w>
no ad
ma i
h re
w u
stü ck</w>
spra chen</w>
sozi al
so wie</w>
si den
in g
g he
wörter buch</w>
sch utz
johan nes</w>
hrs g</w>
hand buch</w>
el t</w>
da m
2 9
1 9</w>
west n</w>
sch au</w>
hel mut</w>
fü n
f all
wo r</w>
t ar
plat z</w>
kul tur</w>
krie g</w>
hei m
d l</w>
c an
wer k
t r
noch boa
hab en</w>
ern st</w>
ba si
201 3</w>
um s</w>
tra g</w>
sti an</w>
l or
l er
k er
ur en</w>
l am
h na
eng li
en s
da bei</w>
7 7
t o</w>
o -
ma l</w>
ger i
af ri
4 0
w ander
theat er
si on</w>
ri ch
lat ein
ko m
a pri
3 6
t te</w>
sti tu
mm er
e h
cht s
an t</w>
199 9</w>
währ end</w>
p rin
n s</w>
in ger</w>
ge ht</w>
g ent
etz t</w>
v en</w>
ss e
poli ti
p lan
mart in</w>
kl ein
ehe mali
d ro
a p
2 .</w>
1 3</w>
ta g</w>
r al
pro je
okto ber</w>
is mus</w>
i hn</w>
i g</w>
f ei
em ba</w>
be zeichnet</w>
apri l</w>
a hr
- verlag</w>
öst lich</w>
za hl</w>
t al
reli gi
pfar r
pau l</w>
le m</w>
her zo
flä che</w>
el e</w>
berei ts</w>
bayer ische</w>
m el
le s
einwohn er
c am
5 5
1 00</w>
wi r</w>
war t</w>
vo ll
mü hle</w>
lei p
kilomet a</w>
in sel</w>
gib ts</w>
and re
zu g</w>
t ru
grupp e</w>
go tt
franz ö
da t</w>
ur spr
sch rie
ma r</w>
ma cht</w>
jahrhun dert</w>
i hm</w>
f lia
e hr
3 4
2 5</w>
spra ch
s ö
s la
m y
l t</w>
j ür
hal b</w>
ger hard</w>
e xi
ba r</w>
zusam men
sti e
per son
kro as</w>
h a</w>
g rie
f a</w>
ck er</w>
bau t</w>
b lat
a z
1 4</w>
z woa</w>
m ein</w>
fa ss
c al
a da</w>
vi de
pro du
mü ller</w>
ge ogra
be l</w>
1 7</w>
wä hn
stati sti
musi k
deutsch er</w>
be deut
b on
stä hd</w>
st rei
min ga</w>
kilomet er</w>
jür gen</w>
ho fen</w>
flu g
et z</w>
begri ff</w>
b la
3 .</w>
1 ,
ß n</w>
u ri
p al
o hne</w>
mar kt</w>
m t</w>
köni g
k auf
is se</w>
hat te</w>
g le
ei ch
d an</w>
y -
v ar
s berg</w>
199 4</w>
ti ge</w>
ss a</w>
re m
p t</w>
mm el</w>
liter atur</w>
bi ogra
b s
199 3</w>
199 0</w>
wer ner</w>
s h
men schen</w>
lich keit</w>
ka de
in di
v u
sie d
schri ft
poli t
me di
ge le
e li
d ungs
b is
w ein
st en
st ab
s ul
o b</w>
lu x
ho a
gehör t</w>
te u
sa in
s lo
ri cht</w>
lich t</w>
krei ch</w>
jahr en</w>
ham burg</w>
g li
ein führung</w>
an der</w>
18 7
zeit schrift</w>
u .</w>
tex t</w>
schrif ten</w>
s einen</w>
rän k
nor den</w>
mo der
m ut
lä u
kir chen</w>
gr in
et en</w>
di o
d é
bur ger</w>
b rit
af a</w>
18 0
z el
wei s</w>
w un
ro man
mi lli
ll a</w>
h ä
ge m</w>
fran kreich</w>
da mit</w>
berei ch</w>
b rie
wissen schaft
verwal tungs
tra di
sch a</w>
pp en</w>
o an</w>
na h
n n</w>
den km
den k
ver bin
va wo
sta at</w>
s ein
leip zig</w>
l y
her ausge
hei mat
gen er
en den</w>
b y
al o
sie dl
ortstei l</w>
me mm
m .</w>
kri ag</w>
h y
franzö s
fe st</w>
f ischer</w>
er sten</w>
e v
ch ste</w>
wen n</w>
ver ein</w>
um fa
ru d
poli tische</w>
ka li
inn er
in stitu
i g
fl ü
fi r
et te</w>
er z
br ück
an g</w>
ad olf</w>
2 .
wal d
spro chn</w>
spe ss
septem ber</w>
qu e
o sten</w>
mitglie d</w>
kl eine</w>
h ri
gmo a
ga u</w>
be sitz
au er</w>
a h</w>
z -
x -
wichti g
se hr</w>
sch ü
prei s</w>
o ft</w>
mittel al
k am</w>
her r</w>
f te</w>
d '
ba d</w>
a kti
. de</w>
zei chen</w>
ti on
städ te</w>
ro sen
l -
ju gen
fra u</w>
en g</w>
bei trä
be völk
wa hr
w ö
spi e
m ol
k rat
histor ische</w>
fern se
da l</w>
sti f
regi on
o stn</w>
lini e</w>
j e</w>
er ten</w>
do kum
di stri
d on</w>
ck er
bil d</w>
auß er
ar n</w>
2 2</w>
wo hna
poli tik</w>
mar k</w>
man fred</w>
jahrhun der
hi t
g at
f rau
er st
ch s
brun n</w>
bezir k</w>
österreich ischen</w>
sk ri
rei he</w>
or gan
ka p
k ä
h in</w>
gegen wart</w>
g än
g l</w>
flie ßt</w>
ff en
bezi ak</w>
b all
194 5</w>
weiter e</w>
te ch
sü den</w>
syste m</w>
ma g
m o</w>
el e
e d
b at
ar ch
am t</w>
wei t</w>
ori gin
nachbar gemeinden</w>
ko or
jose ph</w>
i en</w>
ha pt
g la
den e</w>
bekann t</w>
ba i
5 .</w>
vawo it
ua r</w>
s ar
o ana</w>
mi r</w>
fe bru
f jor
char d</w>
be sonder
be schrei
a gt</w>
201 6</w>
199 2</w>
zu a
wir k
west lich</w>
ut z</w>
ster n</w>
lo so
li en</w>
in du
han s-
ha l</w>
frie d</w>
famili e</w>
er ungs
chn er</w>
ach im</w>
sied lung</w>
sie he</w>
ortstei le</w>
is land</w>
hein z</w>
glei ch</w>
eih wohna
di es</w>
d al
ale x
st au
sp an
si l
r y</w>
o m</w>
gru afa</w>
gl au
gebi et
e ber
dru ck</w>
de te</w>
bo ar
andre as</w>
tt en
to r</w>
si gn
si en</w>
ne ben</w>
m und</w>
han d</w>
ff e</w>
ent de
chri sto
4 8
ti e
nov ember</w>
kün st
koor din
j .</w>
histor ischen</w>
f ort
en -
c re
a h
201 7</w>
197 2</w>
ü ck</w>
sch lie
rud olf</w>
par tei</w>
ori e</w>
o d
ni cht
lin u
jan uar</w>
199 5</w>
wie der</w>
st ö
sp ort
s or
s einem</w>
phi loso
o wa</w>
o u
l o</w>
hö he</w>
ge di
g ü
ck en</w>
ch ro
be t</w>
a kade
2 1</w>
wo s</w>
vo l
ur kun
ss o</w>
sp rin
setz ung</w>
sam t</w>
re gen
ort es</w>
ob gruafa</w>
nochboa gmoana</w>
l s</w>
kö ln</w>
kri tik</w>
jo hn</w>
jo achim</w>
ihr er</w>
gesam t</w>
ga b</w>
f li
er zähl
a kt
z z
wei ler</w>
w .</w>
vo lu
v ari
t ten</w>
sä tz
schlu ss</w>
sch le
lo s</w>
kt ur</w>
kl är
ins gesamt</w>
fal l</w>
e te</w>
der a</w>
ch in
buch stab
am o
7 0
4 .</w>
österreich ische</w>
z am
ver ein
ul rich</w>
st r
so hn</w>
schu le</w>
r und
po sse</w>
je doch</w>
j ü
geschi chten</w>
di schen</w>
d liche</w>
ar t
ti tel</w>
ti ro
stat t</w>
land kroas</w>
kl aus</w>
e .</w>
dé par
befin dt</w>
b än
b in</w>
4 5
vi e
ver öffent
ver wen
ver ke
sch o</w>
ri ver</w>
n en
han del
groß en</w>
gn er</w>
febru ar</w>
dor f
un ge
t ran
st on
s au
pp en
koordin aten</w>
klo ster</w>
kan ton</w>
grie ch
gra f
g on
fel d
er wähn
e ck
at n</w>
ar a</w>
ander e</w>
an s</w>
al fred</w>
al d</w>
6 0
197 0</w>
w är
sk i</w>
si g
schni tt</w>
sch n
ri chard</w>
ni en</w>
ma x</w>
lu ft
lan g
kun ft</w>
hal ten</w>
f ör
f ränk
f la
ch o
beiträ ge</w>
ati ve</w>
3 8
, 5</w>
ür n
t sche
stück e</w>
se e
r ück
ne w</w>
leben s
kon n
führ er</w>
dat en</w>
bil d
6 0</w>
20 0</w>
ä ch
t her
ro bert</w>
n er
letz te</w>
köni g</w>
grenz e</w>
g ün
bu id
bil dern</w>
al ten</w>
198 4</w>
z au
scho f
p s</w>
on line</w>
lich es</w>
kto r</w>
k le
i wa</w>
ger man
fahr t</w>
ei s
easch te</w>
au n</w>
ange li
3 5
z wo
t liche</w>
sp o
sp ar
sain t-
o m
m als</w>
lux em
gro u
g lo
e st
den en</w>
d d</w>
bür ger
ba m
b lei
197 8</w>
w er</w>
sch mi
p ä
li us</w>
institu t</w>
in sel
her mann</w>
ge san
bu i
we gen</w>
un be
umfa sst</w>
stie g</w>
st um</w>
si dn</w>
si cht</w>
selb st
schwei z</w>
sch on</w>
ri sche</w>
rat haus</w>
o ba
l auf</w>
in o</w>
herausge geben</w>
ge stellt</w>
g schi
fre m
flu ss
be ag</w>
a kt</w>
8 0
2 4</w>
198 6</w>
198 3</w>
w e</w>
to d</w>
tex te</w>
te chn
sp it
se chs</w>
schrif ten
sch es</w>
ro man</w>
olog ische</w>
n ürn
n ung</w>
n is</w>
m ent
gr enz</w>
fi g
europ a</w>
eini ge</w>
do r</w>
d rit
ch ter
b ron
ant on</w>
urspr ün
unter ne
um fo
ti gen</w>
se m</w>
offizi elle</w>
nestro ys</w>
na mi
lu s</w>
le u
jä hri
hol z
g or
fün f</w>
fe hl
dies es</w>
blat t</w>
ant ar
alp ha
6 6
5 00</w>
3 2</w>
198 7</w>
1 –
zusam men</w>
ti ert</w>
reich s
ra t</w>
r enn
nah me</w>
mo is</w>
ma t</w>
ka hl
gemein schaft</w>
for st</w>
di cht
ab ge
5 4
198 9</w>
y a</w>
wo ar</w>
to uri
te ment</w>
t in
schö n
p er</w>
p e</w>
p -
m ati
le b
in er</w>
häl t</w>
hoi b</w>
gu t</w>
gen annt</w>
g rei
diet er</w>
bei den</w>
al te</w>
west li</w>
t au
n utz
mid dl
lie be</w>
la gen</w>
gre ß
gen den</w>
fia ht</w>
fall s</w>
deit sch
b le
a schaf
2 7</w>
wissen schaft</w>
wa sser
w w
stä dt</w>
sein a</w>
s ent
rit t</w>
ra d</w>
pf le
nu a</w>
mm en</w>
mei ster</w>
man u
kir ch
eri ch</w>
ent stand</w>
co de</w>
chri stian</w>
c at
bil der</w>
außer dem</w>
arch ä
7 8
voi ks
ver zeichn
ss y
s erie</w>
nor weg
mer k
le on
le o
l ar
kaf ka</w>
ja pan
i ge</w>
g ten</w>
din gs</w>
da m</w>
archi te
all er
wei ß
w s</w>
vide os</w>
u sa</w>
tech nik</w>
ta schen
t ür
ri k</w>
re uth</w>
p lo
mün chner</w>
mi ch</w>
liter at
lie gd</w>
kö n
inter nation
ho u
h ung</w>
go et
gn e</w>
gi o</w>
g kei
flia ßt</w>
fe u
exi sti
ev angeli
dl i</w>
b lu
6 .</w>
wer t</w>
verla gs
t y</w>
sa ch
r hein
p en
m s
k li
häu ser</w>
gra ben</w>
gi e
gen o
geb ung</w>
g au
fol gende</w>
der ung</w>
ck en
br ü
au tor
978- 3-
7 9
20 .</w>
2 6</w>
198 8</w>
zen t</w>
z ur
z n</w>
wo i
w and
va wen
tz t</w>
sal z
l d</w>
gemark ung</w>
er rei
die sem</w>
d ür
be we
a pp
5 3
z ar
we ch
un de</w>
su ch
stu di
s ste</w>
mb h</w>
k no
gen e</w>
f ti
4 0</w>
197 9</w>
197 4</w>
197 1</w>
19 .</w>
wien bibliothek</w>
war e</w>
th er</w>
t i</w>
sozi ali
sol l</w>
re g
p on
mini ster
memm ingen</w>
me xi
m pf
lie b
li stn</w>
l auf
gesam t
gebi r
g un
en te</w>
en a</w>
dua ch
d un
d r</w>
c us</w>
be stimm
be de
bau er</w>
an de
2 3</w>
y o
wirt schaft</w>
wa hl</w>
vab in
the o
t ter
stu dien</w>
sp ü
sat z</w>
s ur
qu i
po si
p a</w>
ol le</w>
kais er</w>
h i</w>
gan z</w>
g ut
fol ge</w>
fil m</w>
f lo
er schi
bo o
bern hard</w>
bar o
auf ge
ab en
198 0</w>
ä hn
zent ral
we st</w>
w at
ver schie
spiel e</w>
so wia</w>
selb st</w>
s ki
re i</w>
neu en</w>
mi ch
land s</w>
j i
hi elt</w>
haupt stadt</w>
gö tt
gra ph
gesan g</w>
f .</w>
dépar tement</w>
dez emba</w>
bi stum</w>
zi e
wirt schaft
web si
t rau
t ner</w>
t aus
spess art</w>
p la
n d</w>
ko pf</w>
k .
jo ar
i ii</w>
f isch
demo krat
christo ph</w>
bei de</w>
ation s
ati v</w>
al -
vi a</w>
schrei b
pp e</w>
phi li
ne ad
mä ß
m und
lin gen</w>
li a</w>
kir chen
k rä
h on
g ä
g .</w>
frei e</w>
fa ch
er in</w>
c i</w>
be ck</w>
aus m</w>
4 9
spie gel</w>
sp ei
sei tn</w>
sch ol
mü hl
leo pol
komm t</w>
gra fi
gra f</w>
gi pf
ge bur
fri tz</w>
einwohner zahl</w>
dire kt</w>
deut sch</w>
de ssen</w>
co de
ba cher</w>
an fan
ö l
z t</w>
ver eini
t ritt</w>
ne -
mi l
m na
lau t</w>
go tt</w>
enn a</w>
eben falls</w>
dam eri
c .</w>
b rä
b ol
2 8</w>
197 6</w>
zü rich</w>
ze hn</w>
z in</w>
wo hl</w>
vi el
um gebung</w>
stra ß
se hen</w>
s ung</w>
proje kt</w>
progra mm</w>
okto ba</w>
n au
n -
ko hl
k ab
k .</w>
itali en</w>
i us</w>
hn en</w>
h an</w>
gy mna
forsch ung</w>
ff en</w>
er st</w>
d .</w>
c ro
alex ander</w>
a as</w>
7 5</w>
201 8</w>
196 8</w>
. 8
zo i</w>
z un
websi te</w>
veröffent lich
st elle</w>
sei t
s burg</w>
rei che</w>
re volu
mm e</w>
mei st</w>
m än
ll en</w>
lei tung</w>
k ern
k em
ja hre
herr n</w>
hau p
gebi ete</w>
g na
g h
en e</w>
ell o</w>
bu m</w>
ban k</w>
ab a</w>
3 1</w>
196 9</w>
wi tt
un ser
tn er
ta t</w>
t um</w>
st ischen</w>
sin n</w>
ran d</w>
p y
p eri
n etz
mit te</w>
l .</w>
k y
j n</w>
j am
größ te</w>
gr ä
ge grün
g mbh</w>
f äl
ei rop
buchstab e</w>
bo ch</w>
bet rä
b steht</w>
b .</w>
at las</w>
a ss
8 .</w>
7 .</w>
- 0
v el
tt n</w>
stre cke</w>
stam mt</w>
sch wer
sch utz</w>
ro mmel</w>
rei se</w>
r .</w>
person en</w>
p ho
n ennt</w>
met a</w>
katholi sche</w>
ka s</w>
i .
hof er</w>
gymna si
ga r</w>
fernse h
er lan
ei gn
di ss
beschrei bung</w>
ber u
b lä
ander en</w>
we j
val af
ta r</w>
t rie
stück l</w>
ste hen</w>
regi erung</w>
ne u</w>
lie b</w>
k n</w>
j et
ihr en</w>
hin ter
herzo g</w>
ha i
go t
f an</w>
eu ro
din g</w>
deutsch es</w>
ck n</w>
beträ gt</w>
b ä
archi v</w>
ar ische</w>
7 0</w>
3 6</w>
2 ,
198 5</w>
. -
un t</w>
tei lung</w>
stoo ts
so i
ro sa</w>
r i</w>
pi er
nörd lich</w>
mö g
mi ssi
lie gen</w>
k ten</w>
jo a</w>
ins l</w>
hi st
f än
en der</w>
eisen bahn
de st
dat ei
chro nik</w>
c er
be schä
ann te</w>
all gem
9 0</w>
2 9</w>
zahl en</w>
y si
wirt schafts
verzeichn is</w>
uni on</w>
u n</w>
spä ter</w>
sin g</w>
ro m</w>
recht s
ma y
l s
j etzt</w>
hän gi
har t
do af</w>
d ungen</w>
c ent
bu ach
bre cht</w>
bo li
arti kel</w>
ar me
. ..</w>
zau ber
vi ol
versi on</w>
v af
to i</w>
san ta</w>
recht s</w>
o a
k ron
is a</w>
i hre
gleich nami
ell er</w>
el te</w>
dru ck
di a</w>
c ra
bei spiel</w>
ar ab
3 4</w>
öst ar
wer n</w>
wa sser</w>
ur na
süd lich</w>
scho tt
sch ne
sch mid
sch er
s hi
or e</w>
or dn
me yer</w>
m -
lich kei
lan ge</w>
kur t</w>
kreu z</w>
inform ationen</w>
hi er
h et
frü h
f and</w>
e du
beri cht</w>
ba den</w>
ar ung</w>
3 9
18 .</w>
0 er</w>
ü ba</w>
vi el</w>
st -
spe zi
sch -
san kt</w>
ro u
ni mmt</w>
ni e</w>
met er</w>
kreis straße</w>
komm uni
jo a
in i
entsp re
easch t</w>
ci a</w>
bru ch</w>
ze hn
we hr</w>
va l</w>
t us</w>
sta g</w>
sp rä
so w
so ft
septem ba</w>
ron diss
rondiss em
ro n</w>
ri schen</w>
pf al
o i</w>
luxem burg</w>
k ran
k ea
ja ko
j es
i mmer</w>
heili ge</w>
hand lung</w>
fjor d</w>
europä ischen</w>
ent stan
ent s</w>
en berg</w>
dat en
ber lin
ar rondissem
an stal
a da
8 8
4 2</w>
17 .</w>
ä gy
ver su
vawoit ungs
un s</w>
t l</w>
sti k</w>
schlie ß
sch nei
pro zent</w>
port u
national en</w>
läu ft</w>
kon z
jahrhunder ts</w>
is e</w>
ho ds</w>
hei t
g ua
fass ung</w>
f ua
f ru
f on
er öff
er schein
easch tn</w>
e b
deitsch land</w>
ch r</w>
bevölk erung</w>
besitz t</w>
bahn hof</w>
b äu
b st</w>
auf grund</w>
aschaf fen
arbei t</w>
amerikan ische</w>
4 .
we hr
v an
ua li
t 'n</w>
spiel er</w>
so mmer
se j
schw ab
pfarr kirche</w>
pa ss
p ro</w>
o an
n et
lei t
lei st
ki mmt</w>
j ör
insel n</w>
ho ff
fa st</w>
er ei</w>
el s
ein ge
di s
deit schn</w>
deit sche</w>
d ol
c la
be deit
amerikan ischen</w>
akade mie</w>
a un
5 –
5 8
3 ,
197 3</w>
15 .</w>
zwei ten</w>
wür zburg</w>
vi lle</w>
unter such
t at
sü do
st rau
st einer</w>
spro ch
sch t</w>
s zen
nä he</w>
noad n</w>
n is
mitt l
m eine</w>
le bt</w>
l ut
komm en</w>
j än
is ra
i si
gl et
fran k</w>
fir ma</w>
es ische</w>
don au
d au
bu s</w>
bru ck</w>
6 2</w>
5 9
198 2</w>
über setzt</w>
wi tz</w>
ver band</w>
u s
sto ck
ssy ste
ss el</w>
sign atur</w>
schriften sammlung</w>
pp el
politi ker</w>
n enn
mittelal ter
me ss
lan de
l ungen</w>
k i</w>
i ba</w>
he bung</w>
grupp n</w>
fil m
fe li
ei l</w>
ehemali gen</w>
de ri
co mp
ch te
bun de
be sitz</w>
ani en</w>
7 6
öst li</w>
z on
y or
wä hl
wohn t</w>
wie der
wie da</w>
web seite</w>
universi ty</w>
te mp
t är
ste fan</w>
sin g
sch lü
sch in
s ho
ra d
p ul
o ba</w>
my tho
ma ß</w>
m es</w>
literat ur
lie d</w>
i m
he a
gn ennt</w>
gi lt</w>
geschi cht
gemark ungen</w>
gemark unga</w>
gar d</w>
f ro
f le
e k
da d</w>
d ü
brie fe</w>
be g
bayer ischer</w>
ar do</w>
198 1</w>
y m
wo bei</w>
win ter
ständi ge</w>
ständi g</w>
statisti k</w>
st är
st an</w>
spu i</w>
skri pt</w>
schrie b</w>
pri vat
o ffen
nu n</w>
ma xi
li ge</w>
kreis stroß</w>
is ation</w>
hei ts
hand schriftensammlung</w>
frau en</w>
fe sti
f el</w>
ent ste
befin den</w>
bayer isches</w>
at z</w>
ar a
an gel
all er</w>
al en</w>
15 0</w>
zei chn</w>
w ort
vo a
vi ele</w>
vari an
thi as</w>
sp ru
s l</w>
s dorf</w>
ro th
pi ca
pf lan
on c
mün chen
mo tor
me er</w>
mat thias</w>
ma ß
län der</w>
lo u
lich a</w>
le y</w>
le gt</w>
land schaft</w>
l te</w>
l et
k eine</w>
in i</w>
hö ch
hei mer</w>
gr ü
glie dert</w>
er hielt</w>
ehr en
dokum ent
bäu er
b an</w>
b -
all en</w>
al y
al ten
al lem</w>
978- 3-8
6 3
17 0
0 ,
zo i
wei l</w>
ver läuft</w>
v i</w>
theo dor</w>
stif tung</w>
st ant
spra chi
sow jet
sei m</w>
re s</w>
qu ad
port rä
par o
nä ch
nov emba</w>
nor dn</w>
nam a</w>
met ro
lin ks</w>
kar te</w>
kam pf</w>
indu stri
i de
go og
gi en</w>
gedi chte</w>
f ö
f ab
ent fern
ei gent
d ör
co m</w>
c y
buach sto
bo u
ber ü
aschaffen burg</w>
arbei ts
allgem eine</w>
akt u
afri ka</w>
a sta</w>
196 7</w>
12 .</w>
. 9
zi ge</w>
wissen schaften</w>
wil l</w>
wei t
viol onc
vi d</w>
v u</w>
tra gen</w>
stad tt
sp er
si erung</w>
sch wa
qu ell
par tner
no t
mu s
minister i
men sch</w>
mei ster
lie der</w>
krie gs
kon tin
klo ster
k lin
it n</w>
hist ori
he ft</w>
goet he</w>
gen i
französ ischen</w>
flä ch</w>
fl or
en en</w>
co u
ch tet</w>
ben edi
anfan g</w>
an fän
7 5
6 8
3 9</w>
3 5</w>
í o</w>
zeichn ungen</w>
war um</w>
w ü
un it
umfo sst</w>
ti er
taschen buch</w>
t ö
t rei
t ol
stoo t</w>
ste j
sal zburg</w>
rosen heim</w>
pi et
pf er
ni tz</w>
mon te</w>
ma gn
linu x</w>
l ein
kin der
joar hun
i wa
hi r
heili gen</w>
h um
gymnasi um</w>
gab en</w>
g an</w>
fo to
eng l</w>
ein zel
der en</w>
dar stellung</w>
bet ro
beschä fti
bam berg</w>
b lau
au ton
alo g</w>
ad n</w>
a di
9 .</w>
4 1</w>
197 7</w>
16 .</w>
1 /
ung an</w>
theater zeitung</w>
teil t</w>
ta ge</w>
t ischen</w>
sy m
su b
staat en</w>
sa ar
s c
revolu tion</w>
ph ysi
nürn berg</w>
n å
mat he
lo i
ll er
lei tet</w>
lan des</w>
kla ssi
in gl
her bert</w>
fu ß
en dorf</w>
e af
don au</w>
ca st
bo ur
betrie b</w>
ber n</w>
auton o
arrondissem ent</w>
an g
aller dings</w>
afri kan
197 5</w>
10 .</w>
ü .</w>
ä ler</w>
vi c
unter stü
stand ar
ss o
s am</w>
röm ischer</w>
ra i
no ma</w>
mo i</w>
mit ter
m i</w>
kur z
k lu
k ein</w>
har ald</w>
han g</w>
gu sta
fried hof</w>
f s
er weiter
en burg</w>
ell a</w>
el n</w>
denkm äler</w>
c s
c lau
bur gen
blä tter</w>
bin gen</w>
bewe gung</w>
bet rei
alp en
al brecht</w>
4 6
4 5</w>
17 7
1 1.</w>
zw isch
z ru
y mp
verein s</w>
ve j
ty p
t ü
stati st
s un
s ka
re m</w>
qu elle</w>
pä die</w>
prä sen
par is</w>
p in
olo ge</w>
ob je
nicht s</w>
ne m</w>
lin ger</w>
kön nen</w>
k r</w>
j en
i k</w>
hu ber</w>
gehör en</w>
g g</w>
frü hen</w>
fran c
for d</w>
f au
f -
er klär
ele kt
e ur
e k</w>
di gi
d ur</w>
d lich</w>
blo ck</w>
bil dung</w>
bei trag</w>
är e</w>
wa gner</w>
w en</w>
uni x</w>
un ab
tiro l</w>
sti l</w>
schmi dt</w>
schi l
ra di
qu ar
pfar rei</w>
pa ge</w>
p st</w>
p ha
o li
ni kol
ne te</w>
ne ben
nat ur</w>
mö n
mon t
kü ste</w>
kreu z
kais er
italien ische</w>
hn ung</w>
herr schaft</w>
hei d</w>
he k
hab e</w>
gen au</w>
gar ten</w>
fi el
europä ische</w>
edu ard</w>
easch t
de ten</w>
c -
buid l</w>
at a</w>
ak ten</w>
a stro
3 .
2 –
1 1
wien er
wech sel
we ak</w>
verbin dung</w>
the orie</w>
st et
schni tt
rei se
re gel
r en</w>
par t
p sy
ori um</w>
moder ne</w>
mittelal ter</w>
mehr ere</w>
letz ten</w>
kla ss
k ör
jahr buch</w>
j er
in gol
hil de
hei del
heidel berg</w>
haf en</w>
geogra ph
eber hard</w>
e mo
dr .</w>
do g</w>
ch ing</w>
ch an
beg inn
b m</w>
antar kt
an wen
9 6</w>
3 –
196 6</w>
196 3</w>
196 1</w>
zu dem</w>
z y
z ol
wo hl
wichti ge</w>
to po
tei le</w>
sk y</w>
se ba
rem ischa</w>
prä siden
p o</w>
o t
o d</w>
n t</w>
mili tär
k au
ihre m</w>
hor st</w>
histor ischer</w>
h ein</w>
ge ben
g sch
et hn
erwähn t</w>
erst mals</w>
eich stä
d ä
bu d
bli ck</w>
bezeichn d</w>
be wer
b und</w>
anti ke</w>
ann a</w>
al l</w>
a as
5 3</w>
4 9</w>
4 3</w>
3 7
we ana</w>
wa ch
w in</w>
w ett
va schie
tradi tion
te ste</w>
städ te
st af
sei ten</w>
schi ff
s ab
rä um
r ío</w>
qu ellen</w>
pre ss</w>
milli onen</w>
mar cus</w>
latein ische</w>
kti onen</w>
kon ze
i den
hei mat</w>
gra z</w>
geb äu
ge stal
fe j
er inner
enz y
ehe mo
dü ssel
di ch</w>
da ß</w>
da von</w>
d y
bra un
bi et
bi a
berü hm
ben annt</w>
bedeut ung</w>
bau ern
b y</w>
a a
2 1.</w>
193 8</w>
ó n</w>
z in
wies baden</w>
wa hl
w and</w>
utz t</w>
um s
ter n</w>
st in</w>
sie ben</w>
si cht
si a</w>
sch wi
regen sburg</w>
pfal z</w>
p an</w>
ortstei len</w>
n u</w>
n on
lö sung</w>
lini en</w>
lin g
lei t</w>
j i</w>
inter nationalen</w>
i -
hoi t</w>
histor isches</w>
h t
fo is</w>
fi g</w>
f c</w>
er inn
dor fer</w>
dien st
di r</w>
di chter</w>
dan i
d t
bre tt
bau m</w>
at lan
an o
an aly
am ts
ad mini
8 0</w>
4 8</w>
23 .</w>
191 9</w>
z bach</w>
wo id</w>
wi der
wei ter</w>
war t
w ua
v am
unge fä
ung sp
unab hängi
u e</w>
tsche ch
t ann
stu den
soft ware</w>
so gen
schi ff</w>
rei chen</w>
ra hmen</w>
prä gt</w>
per cht
p r
p ea
nestro y-
n isse</w>
mili tä
me dien</w>
mati k</w>
lo kal
li ga</w>
in hal
ger ä
gen en</w>
gel d</w>
ge o
g han
fü a</w>
fer din
erfol gte</w>
er d
en ti
eigen e</w>
ei s</w>
ei ch</w>
di na
brück en</w>
br in
bil det</w>
betrie be</w>
ant oni
am t
alp en</w>
al ter
al ois</w>
ab t</w>
a y
978- 3-4
3 3</w>
3 00</w>
196 4</w>
195 0</w>
z ö
wil li
wi at
vol k</w>
ver brei
ursprün glich</w>
ti onen</w>
t u</w>
sö n
stu die</w>
staats straße</w>
st ur
schof tn</w>
s heim</w>
pa zi
mon i
manu skript</w>
lo g
kul tu
kreis es</w>
konn te</w>
kol oni
katholi schen</w>
k. k</w>
k na
jugen d</w>
je wei
i hnen</w>
goog le</w>
gegrün det</w>
fo a
fin an
fa mi
er geb
er de</w>
ent hält</w>
diale kt</w>
dar e</w>
cht n</w>
chin es
c l
c it
bän de</w>
be gin
ande rem</w>
all es</w>
al bert</w>
a is</w>
195 6</w>
194 8</w>
äu ß
zur ück</w>
wissenschaft liche</w>
ver fü
vej kar
tz e</w>
ts äch
ts ch</w>
tra t</w>
ter rit
tel e
stoots stroß</w>
star k</w>
st ation</w>
sk a</w>
schol z</w>
s eines</w>
ri chten</w>
regi erungs
p lä
o k
nor do
ne s
ll en
kir ch</w>
ka hl</w>
hapt stod</w>
gusta v</w>
griech ischen</w>
geri cht</w>
für st
frei burg</w>
el em
e d</w>
di n</w>
begin n</w>
au stra
anstal t</w>
al bum</w>
a de</w>
24 .</w>
196 0</w>
17 8
15 0
zei d</w>
w ein</w>
vi et
valaf ft</w>
unterne hmen</w>
u i
ste hen
st rat
sp uren</w>
slo wen
si sch</w>
sch ro
region al
ra j
p ten</w>
mari e</w>
m l</w>
m ein
lehr e</w>
kur z</w>
kr ati
kin der</w>
ki ach</w>
k ür
jugen d
inner halb</w>
herzo g
go r</w>
gen der</w>
ge heim
fä hr
fre u
fa vor
f ts
enzy klo
ent schei
e se</w>
dn is</w>
da vid</w>
comp ut
br enn
bor n</w>
bevölk erungs
betrie b
berg -
arme e</w>
an er</w>
6 9
5 5</w>
30 .</w>
195 4</w>
14 .</w>
13 .</w>
wei ße</w>
wei st</w>
we ge</w>
vu i</w>
verwal tung</w>
u ß
stimm e</w>
st rie
siedl ungs
schlu ss
san t</w>
russ land</w>
ron d</w>
regi e</w>
quad rat
politi ka</w>
percht ol
perchtol ds
o lin
na cht</w>
mon t</w>
mat ische</w>
lo hr</w>
lo g</w>
li e</w>
ki ach
k um</w>
ju den</w>
j ung
isch s</w>
indu strie
in na
hoa ßt</w>
herr en</w>
hei den
grün dung</w>
gr an
ger t</w>
frei heit</w>
frank fur
for st
fest schrift</w>
ers dorf</w>
er zi
entde ck
en er
eirop ä
denkm al
datei en</w>
da zu</w>
d y</w>
ci us</w>
ca l</w>
bu s
br auch</w>
bisch of
bezi eh
be arbei
at s
ar n
admini str
a ir
194 9</w>
19 00</w>
än de</w>
zwei te</w>
zei gt</w>
y l
w n</w>
w -
vo a</w>
ung arn</w>
un den</w>
ti ons
te m</w>
t isch</w>
t hei
spä t
schrift stell
s ko
s and
ro te</w>
re form</w>
re chte</w>
pro fe
pro ble
pp n</w>
par lam
p ort</w>
origin al
op er</w>
o per
neu es</w>
nam ens
mün det</w>
men sch
main -
m in</w>
li st</w>
le gende</w>
köni gs
kö l
kin d</w>
k l</w>
j ung</w>
it z</w>
isra el</w>
is o</w>
hu go</w>
hr en</w>
hor n</w>
hit ler</w>
gen d</w>
g ungen</w>
für st</w>
for men</w>
er er</w>
entste hung</w>
entde ckt</w>
e .
dies en</w>
diale kt
d ler</w>
c ci
buachsto b</w>
bet h</w>
aus stell
am e</w>
al a
a de
a cht</w>
195 9</w>
195 5</w>
195 3</w>
10 0
äch st</w>
ä st
wis sen</w>
v ent
t ation</w>
sä m
stä id</w>
ste u
spiel t</w>
schla cht</w>
ro l
re st
ra l</w>
po st
per sön
p el
on t</w>
o st</w>
mat eri
m ur
lon g</w>
la g</w>
krie ges</w>
kon rad</w>
ko mö
kap elle</w>
kan ada</w>
jähri gen</w>
ju bi
jubi lä
italien ischen</w>
is sn</w>
internation al</w>
inn en
ingl stod</w>
i. n</w>
i v</w>
i mp
hö hen
hö chste</w>
he y
gra mm
gra fen
gmoa gebiet</w>
ges etzt</w>
gemeinde gebiet</w>
ge sprä
ge g
g ungs
fol genden</w>
fin det</w>
fi li
fahr er</w>
er ungen</w>
ein ö
e mi
e ck</w>
di g</w>
dan ach</w>
ber ge</w>
be vejkar
be ss
bar bar
auß a
at o
am a</w>
alpha bet</w>
al zen
10 00</w>
österreich s</w>
zähl ung</w>
zähl t</w>
zu kunft</w>
z war</w>
z an</w>
z .</w>
z '
yor k</w>
wor ld</w>
win d</w>
wichtig ste</w>
wi d
wer t
we sen</w>
wan n</w>
wan del</w>
w on
w .
verwen det</w>
vat er</w>
u -
t ke
t ha
st he
spiel te</w>
spe kt
sp anien</w>
scho ft
sch ar
sch an
s ua
s ci
russ ischen</w>
ri a</w>
regi onen</w>
poli tan
philoso ph
ph on
pf or
o im</w>
mu l
main z</w>
lo gie</w>
li gt</w>
la r</w>
la i
kultu re
kri tische</w>
k an</w>
k -
il lu
i i.</w>
hei ßt</w>
hei ten</w>
ham mer</w>
grupp m</w>
gra fen</w>
ghe at</w>
ge spro
gan g
ferdin and</w>
feli x</w>
fel s</w>
fahr en</w>
f ort</w>
errei cht</w>
er ober
entwick l
engli sch</w>
e ff
drit te</w>
distri kt</w>
di ent</w>
den s</w>
de m
dar m
dan e</w>
cs u</w>
chi le</w>
can a
c ti
c el
ba t</w>
b s</w>
auto r</w>
aus stellung</w>
ar ten</w>
a z</w>
9 –
5 4</w>
4 4</w>
3 8</w>
194 6</w>
191 8</w>
öst lichen</w>
zun ächst</w>
zei tig</w>
wei ß</w>
ver lie
u tet</w>
u fer</w>
t af
seit dem</w>
seba stian</w>
schrei bt</w>
sch rö
s eri
ri lli
re da
pol y
pica sso</w>
par tei
p ö
o ze
noch m</w>
ne l</w>
na hm</w>
ministeri um</w>
mich el
mei er</w>
me l</w>
lon don</w>
lo ch</w>
la u</w>
kon n</w>
kon fli
k lei
k ation</w>
jä hr
j ur
j enna</w>
ingol stadt</w>
in te
ho me
handel t</w>
ghe ad</w>
ger -
g sti
führ te</w>
fin i
f s</w>
es ischn</w>
er rich
enzyklo pädie</w>
e va</w>
e ar
düssel dorf</w>
d än
d um
com unit
c lu
bi er
besonder e</w>
bar e</w>
b m
auf nahme</w>
5 7
4 7
0- 0
wichtig sten</w>
wi ll
west liche</w>
we i</w>
vor sitz
unterne h
universi tä
te sten</w>
ss d</w>
spru ch</w>
sie g
ser ge
se hen
re l
re chn
r y
on li
mo unt</w>
mid d
merk ungen</w>
me er
lie be
li s</w>
leopol d</w>
leon ardo</w>
ke i</w>
kahl grund</w>
k te
k ru
k n
k ern</w>
jako b</w>
hol z</w>
ho hen
hek tar</w>
g so
g gen
fün f
fuß ball
fun k</w>
flä chn</w>
erschi en</w>
eichstä tt</w>
ehemali ge</w>
di chte</w>
den ken</w>
dar aus</w>
char ak
ch or</w>
bra si
bisch ö
b lü
b and
an er
an -
6 –
6 5</w>
3 7</w>
28 .</w>
27 .</w>
196 2</w>
195 7</w>
195 2</w>
/ i</w>
' n
é n
ww w.
wen i
wen g</w>
wei s
we sent
wa gen
vor ge
vi ert</w>
ver än
ver kauf
v is</w>
ungefä hr</w>
t ori
t an</w>
sto ff
st ör
spre cher</w>
schu i</w>
schi ck
sch lei
s und</w>
s k</w>
s et
ro sn
ro lle</w>
ro land</w>
ro ck</w>
re form
pfle ge</w>
ordn ung</w>
or che
mäß ig</w>
mu ss</w>
me dien
mann schaft</w>
län ge</w>
lichkei ten</w>
leben s</w>
lande samt</w>
land kreises</w>
kon son
jü dische</w>
jahre s
i tal</w>
har t</w>
gün ter</w>
gü l
größ ten</w>
gol d
ger n</w>
geogra f
gehör te</w>
gebiet s
ge wer
ge gn</w>
ga st
g är
fru cht
fo ing
fig ur</w>
erinner ungen</w>
entsp richt</w>
e wi
e ss
e am</w>
den n</w>
de i
dameri ka</w>
comunit à</w>
char les</w>
bü cher</w>
boar ischn</w>
bir n
biet et</w>
betrieb ssyste
be stand</w>
be stand
a ster
a 'n</w>
9 3</w>
196 5</w>
16 -
ü b
å g</w>
zu gs
win do
wej d
war d</w>
w af
val ent
v ort
v -
unbe wohnt</w>
un ser</w>
teil en</w>
te d</w>
sta t</w>
spe kti
sa is
s än
s es</w>
qu e</w>
pro te
pra g</w>
pp el</w>
porträ t</w>
par ti
ort ho
musi kali
mo bil
mm el
missi on</w>
ma cher</w>
ll t</w>
len bach</w>
lau t
latein ischen</w>
landes bibliothek</w>
komp oni
kir a</w>
kaf fe
k ing</w>
k ale</w>
iden ti
home page</w>
ho tke
hil fe</w>
go u
ges etz</w>
geor ge</w>
gener al
gem äl
gan gs
fre i</w>
foi gn
fin den</w>
fe ba</w>
es co</w>
er a</w>
en bach</w>
ein heit</w>
edi tion</w>
dokument ation</w>
do m
dani el</w>
ch ung</w>
bundes wehr</w>
bu l
brück e</w>
bo t</w>
blei bt</w>
be glei
b lan
aus g
auf m</w>
ali smus</w>
8 –
8 6</w>
5 2</w>
5 .
4 7</w>
3-4 2
, 8</w>
west lichen</w>
weiter en</w>
vi lla</w>
v s</w>
v is
un dn</w>
tz ung</w>
tt a</w>
tie fen
t ut
t rin
strei t
stre ckt</w>
ster n
stell en</w>
st hal</w>
sch na
sch li
s us</w>
s kan
röm ischen</w>
ro hr
ri o</w>
re u
re siden
prä fe
philoso phie</w>
phili pp</w>
pet ers
pe di
paro die</w>
pa pst</w>
oni en</w>
o pp
ne w
na hmen</w>
metro politan
men schn</w>
lin gs
li eng</w>
li ber
land -
la m</w>
l ein</w>
kol le
kan t
jör g</w>
ju lius</w>
heu tigen</w>
hei rat
har dt</w>
han dl
graf schaft</w>
gleichnami gen</w>
gesch rie
gen s</w>
gemein sam</w>
gei st
fäl le</w>
feu er
f lei
d v
beginn t</w>
be dro
barbar a</w>
b ün
b lieb</w>
au gs
al a</w>
9 4</w>
7 6</w>
7 00</w>
6 8</w>
4 –
3-8 9
29 .</w>
191 4</w>
1 15
ägy pt
wu an</w>
wi t
violonc ello</w>
ver tre
ur n</w>
un mittel
tz er</w>
tre ff
tr enn
tn is</w>
süd lichen</w>
stro ßn</w>
stell te</w>
stat e</w>
so mmer</w>
si cher
s z
religi ö
religi ons
reich s</w>
rei cht</w>
re den</w>
pro ze
pf er</w>
p .</w>
op en</w>
o g</w>
nörd lichen</w>
nor d</w>
nestro y
na he</w>
mo del
men s</w>
maxi mili
m mi
künst ler
kä mpf
kra ft</w>
kan z
ja pan</w>
j an</w>
i ll
hi gh
he chste</w>
he brä
gro ß</w>
gri ach
gn enn
glie dat</w>
gebäu de</w>
gebir ge</w>
ge samm
frei en</w>
frau en
engli schen</w>
eli sa
einö de</w>
eben so</w>
di s</w>
di r
den bach</w>
de -
darm stadt</w>
ch am
bon n</w>
biogra phie</w>
b ein
auto hotke
archä ologische</w>
ar gent
an s
ad da</w>
aben teu
a .
978- 3-9
22 .</w>
192 8</w>
. com</w>
wies en</w>
west -
w et
verke hrs
ver wand
unter schie
uni ver
ul l
to m</w>
ter e</w>
t in</w>
sätz e</w>
stein bach</w>
st eine</w>
sp a
soziali smus</w>
sozi ale</w>
so uth</w>
sla w
si s</w>
si m
si dli</w>
sen dung</w>
sei ts</w>
schul en</w>
s um
s co
provin z
pre siden
polit isch</w>
p te</w>
p le
od li
o ch</w>
nach richten</w>
nach dem</w>
n ar
mi s</w>
mar gar
man d</w>
ma ssi
ma schin
lo se</w>
lich ste</w>
lehr buch</w>
l un
l ers</w>
künst ler</w>
kun z</w>
kri ti
kin i</w>
kat alog</w>
ka pi
hol d</w>
hin ter</w>
hilde gard</w>
her z</w>
g ur
flü sse</w>
fiel d</w>
fer ti
ern e</w>
er o
ent steht</w>
eihwohna zoi</w>
e f
diet rich</w>
dien st</w>
di schn</w>
di gt</w>
den er</w>
da zua</w>
da her</w>
ch or
ch ina</w>
c t</w>
c s</w>
bran den
bo h
bil den</w>
besonder s</w>
au dio
ann o</w>
an ische</w>
a sien</w>
6 4</w>
4 6</w>
3 1.</w>
25 .</w>
18 18</w>
zei ten</w>
z ung</w>
yl ke</w>
wo i</w>
wett bewer
wander er</w>
ver ge
ve se</w>
v et
uni code
tre u
tradi tion</w>
to chter</w>
th a</w>
stä tte</w>
stra ß</w>
ste ph
sta di
schlo ssen</w>
russ ische</w>
qu in
par is
ort schaft</w>
origin al</w>
ol ymp
ol d</w>
nord -
markt heiden
man i
m bri
lä sst</w>
le -
kti on
ko pf
ko mi
kar l
k et
i mma</w>
hor n
ho b</w>
histor ischn</w>
haup tsäch
hal le</w>
gschi cht</w>
gleich zeitig</w>
gl i</w>
gi l
ger s</w>
geb or
ge wä
fran ken</w>
fo r</w>
fl ori
f ylke</w>
et was</w>
emo ji</w>
elisa beth</w>
ei g
e ssa
drei ß
den -
d ge</w>
count ys</w>
ck -
c le
c an</w>
brit ische</w>
be ts</w>
bayer n
astro no
ar ischen</w>
ann ten</w>
and ro
al so</w>
ahr ens</w>
ad block</w>
ab schnitt</w>
a del
9 5</w>
9 0
6 7
194 4</w>
10 -
1- 0
z et
wun sch</w>
wo id
we sen
wa ppen</w>
w enz
vi r
ver gan
v n</w>
v ei
urspr ung</w>
te s
ta ges
t sch
su per
su cht</w>
straß en
stra ßen</w>
sto a</w>
statist isches</w>
stat us</w>
stand ard</w>
spre cha</w>
si do
schmid kunz</w>
s ha
religi on</w>
re zen
qu odli
qu art
progra mme</w>
prin z</w>
po et
p han
oi dn</w>
nor bert</w>
ne y</w>
ne un
nat ür
nach fol
n ort
n de</w>
mün ster</w>
mo ti
mal er</w>
ma yer</w>
la ch</w>
ko ch
kar ri
k ua
jän na</w>
jo urna
ja co
j ün
j o</w>
it a</w>
inn en</w>
hr ung</w>
hr t</w>
histor isch-
hal bin
gra phie</w>
glau be</w>
ghe an</w>
ges etz
gebur t
fua ß
fre unde</w>
französ ische</w>
flug hafen</w>
f n</w>
erschein t</w>
el s</w>
e j
e an
dua chn</w>
dre s
dicht ung</w>
chti g</w>
ch â
ch 'n</w>
bän den</w>
brun nen</w>
bron n</w>
brei ten
benedi kt
ben e</w>
be hör
außa dem</w>
au ssa
at s</w>
archite ktur</w>
al ter</w>
a st
8 00</w>
3 /
193 9</w>
10 .
, 6</w>
z el</w>
welt krieg</w>
wei mar</w>
we gn</w>
we ber</w>
versu ch</w>
va u</w>
ur e</w>
unser e</w>
trä gt</w>
tex t
su che</w>
ste l</w>
st y
spiel en</w>
spekt rum</w>
schließ lich</w>
sch wä
sch wan
sch lia
sch el
sch at
sais on</w>
s h</w>
rie d</w>
rau m
ra iner</w>
per spekti
o pi
o am</w>
nord östlich</w>
nikol aus</w>
n un
musik sammlung</w>
mon d</w>
mo ß</w>
mitglie der</w>
mid m</w>
met all
marktheiden feld</w>
mar x</w>
ma ga
m etz
linu x-
la a</w>
krati e</w>
kr aus</w>
komp l
kan al</w>
is sen</w>
hö ri
hoff mann</w>
hn en
han ser</w>
h g</w>
h -
gsti eng</w>
grupp en</w>
gre gor</w>
gn a</w>
gl ück</w>
gen heit</w>
g reich
g liche</w>
g her
frü her
fi e
famili en
fa ch</w>
f lich
ex pedi
euro pa
en gel
eck e
e ben</w>
drit ten</w>
di ver
di sch</w>
di ger</w>
da ch
cana vese</w>
bu cht</w>
be konn
be gan
b ut
b o</w>
aus de
auf trag</w>
ann e</w>
191 3</w>
ähn lich</w>
zeu gn
z wa
wür t
wür de</w>
wi ki
wen ige</w>
wa y</w>
w ski</w>
vi l
v ua
untersuch ung</w>
unta schie
uni code</w>
touri smus</w>
t ing</w>
t /
ston dn</w>
sti ch
st n
sp on
sk ul
si erte</w>
schwab en</w>
schu i
schnei der</w>
schlü ssel
sch wo
sch mer
sch a
sa l</w>
sa gen</w>
s ø
s dem</w>
s '
re stau
produ zi
pier re</w>
ph one</w>
perchtolds dorf</w>
pat ri
or ten</w>
o ch
nation al</w>
na cht
mitt ei
lie fer
le sen</w>
la go</w>
ky rilli
ku bi
kar l-
internation ale</w>
hö fe</w>
ho he</w>
ho am
hn er</w>
gu e</w>
greß te</w>
gra b
gespro chen</w>
g ste</w>
g hod</w>
g am
fun ktion</w>
fränk ischen</w>
frie den</w>
for um</w>
fin n
fin dt</w>
f r
f 1</w>
erzähl ungen</w>
erz bischof</w>
er b
einwohn ern</w>
ein ander</w>
eascht mois</w>
e y</w>
dra ma</w>
do ppel
di gung</w>
di ge</w>
di chter
deutsch sprachi
den a</w>
d ö
bäuer le</w>
bede utet</w>
bayer ns</w>
b är
ar i</w>
all gemein
al es</w>
8 2</w>
6 00</w>
6 .
184 8</w>
12 0</w>
å s</w>
zü ge</w>
zwei g</w>
würt tem
wen ig</w>
wel che</w>
völk er</w>
ver ne
vawen dt</w>
val le</w>
va kea
tro tz
tel s</w>
te stam
städ t
stu ecke
stra da</w>
sti ft</w>
stant in</w>
stadtt eil</w>
ss or</w>
spo li
sp ort</w>
so i</w>
si us</w>
si o</w>
schu bert</w>
schau spiel
s and</w>
ru s</w>
ro th</w>
rin g</w>
rein hard</w>
r or
r er</w>
r ale</w>
provin zen</w>
pre sse
pl an</w>
organ isation</w>
on -
olog ischen</w>
ol e</w>
oi d
o v
o c
nör dli</w>
ni col
nestroy- stuecke
nei e</w>
mytho s</w>
mon d
moder nen</w>
min dt</w>
me t</w>
markt es</w>
m isch
lut her
lo m
lei d</w>
lei cht</w>
le hn
kla vier</w>
kat har
kat eg
jewei ls</w>
jam es</w>
it ä
inform ation</w>
in -
i stat</w>
häu fig</w>
ho ll
he b
h all
gün ther</w>
gn u
gkei ten</w>
gipf el</w>
gesch ä
ger e
gener al</w>
ge wi
g no
forsch ungs
fi e</w>
fi an</w>
fab rik</w>
f ft</w>
et ym
et i
entspre chen
en ten</w>
en i
en ga
ei st</w>
e mili
der zeit</w>
der s</w>
de fini
c es
bi a</w>
be wohn
b ist</w>
b 'n</w>
arbei tete</w>
ar e
ap ru
anfän gen</w>
an lage</w>
a ß
7 8</w>
4 ,
192 5</w>
191 6</w>
12 5</w>
12 -
1 200</w>
í a</w>
zu ge</w>
zam m
z wie
x e</w>
wo chen
wirk ung</w>
wal da
wa i
volks zählung</w>
vin ci</w>
viel en</w>
vi sion</w>
ver mut
us- amerikan
ung /
u bun
ubun tu</w>
te e</w>
tann häuser</w>
ta gs
städ ter</w>
stock hol
ste j</w>
stadi on</w>
st reich
so mit</w>
sil ber
schla g</w>
schla g
sch les
s ati
röm ische</w>
röm isch-
ru g</w>
r an</w>
pe st</w>
par ab
mut ter
met ho
memm inger</w>
mei st
man a
mai er</w>
m ²</w>
m un
ly rik</w>
könig reich</w>
kti k</w>
kommun en</w>
kat al
kar ten</w>
kan a
k rü
ins ln</w>
in dien</w>
i ten</w>
hoi dn</w>
her kunft</w>
halbin sel</w>
gesamm elte</w>
ge win
g ul
g ing</w>
franz is
f o</w>
erweiter te</w>
ent fe
em pf
el a</w>
do m</w>
di sches</w>
da fri
d us</w>
d dr</w>
cker ei</w>
christ liche</w>
c ul
c d</w>
bür ger</w>
bü hl</w>
bur g-
brit an
boli vi
bern d</w>
be tei
bay reuth</w>
bau te</w>
bahn strecke</w>
b ing</w>
auto bahn</w>
auf l</w>
auf bau</w>
apru i</w>
analy se</w>
an st
an ischen</w>
a gn
6- 0
6 3</w>
4 00</w>
192 0</w>
190 5</w>
1 3-
0 –
. at
über s</w>
zw öl
zi el</w>
zeu ge</w>
z te</w>
y m</w>
wär ts</w>
war n</w>
walda schaf
verwaltungs gemeinschaft</w>
verke hr</w>
v ad
urkun dliche</w>
un z</w>
um ge
u 0
th en</w>
ter i
ten berg</w>
ta gen</w>
sätz lich</w>
säm tliche</w>
szen e</w>
städ tische</w>
stru ktur</w>
stre ckn</w>
sti ge</w>
statisti che</w>
stat ue</w>
stat t
star n
stam m
son nen
son n
so ur
sid lichn</w>
schott land</w>
schi ffe</w>
sch ra
salz burger</w>
rosn heim</w>
ro h
raj on</w>
provin zn</w>
pri v</w>
po in
physi k</w>
paris er</w>
p ut
p en</w>
oze an</w>
op en
ober n
o a</w>
nestroy-stuecke /
nam en
n etz</w>
mär chen</w>
mor gen</w>
mo akt</w>
mexi ko</w>
man s
lu cius</w>
le o</w>
le gi
la st</w>
la ssen</w>
könig in</w>
kon stru
k ut
k ennt</w>
je der</w>
is -
ins besondere</w>
in n</w>
in en</w>
ho it
hi e
hei l
handel s
han del</w>
h ut
gu a</w>
grü n</w>
grund lagen</w>
groß region</w>
gou verne
gott fried</w>
go tische</w>
gesell schaft
geschi chts
geri chts
gel ände</w>
gan ze</w>
ga ius</w>
g å
g as</w>
fil me</w>
et -
errich tet</w>
erlan gen</w>
ein w</w>
ei chen
dr enn
do mini
di sk
dar stell
dam als</w>
cor ne
ck s</w>
ci r
ch es</w>
c ri
c af
bö h
bran d</w>
bo ch
began n</w>
b st
ausde hnung</w>
auf lösung</w>
auf führung</w>
arbei ter
ar men
an merkungen</w>
am mer
9 8</w>
8 3</w>
7 –
194 7</w>
193 4</w>
193 3</w>
192 4</w>
183 8</w>
18 00</w>
über setzung</w>
östar eich</w>
á n</w>
zwisch en
zu ge
z d
y a
x x
windo ws</w>
west lichn</w>
wei ht</w>
wei b
wal l
vi kt
verschie dene</w>
vermut lich</w>
ver häl
valent in</w>
um fan
u l</w>
tz te</w>
sy l
sto ffe</w>
sto ff</w>
sta d</w>
spre chen</w>
sol lte</w>
so ci
si zi
se el
schwei zer</w>
schwar z</w>
re fer
psy ch
polit ischen</w>
partner schaft</w>
p rü
p d
ortho do
ort schaften</w>
ori en</w>
ol e
o t</w>
o ster
o ane</w>
nu mmer</w>
norweg ische</w>
mi a
men te</w>
mei sten</w>
mann s</w>
m ale</w>
län dischen</w>
liter arische</w>
lin i</w>
le gung</w>
ku mmt</w>
komp on
italien ischn</w>
inna hoib</w>
in stru
in do
i re</w>
i a
heu tige</w>
hauptsäch lich</w>
hal b
ha b</w>
h ell
gu i
grün der</w>
gri ff</w>
gra d</w>
gl en
gi u
geburt stag</w>
ge denk
gat tung</w>
gal erie</w>
fä hi
fränk ische</w>
franz esischn</w>
fol gt</w>
fol gender</w>
fol ge
foing de</w>
fla g
f ein
et er</w>
er e
ent lang</w>
en stein</w>
eisen stein</w>
eaf oi
e z</w>
do u
di ö
demo kratie</w>
demo grafi
da vo</w>
d sch
cast el
c c
bundes staat</w>
bo s
bo i
bi en</w>
bevejkar ungs
ben utz
ben e
be din
at h</w>
an sbach</w>
alzen au</w>
akade m
a v
7 3</w>
5 8</w>
33 .
195 8</w>
192 3</w>
17 -
öst liche</w>
zähl en</w>
zi p</w>
zei dung</w>
z l
z an
woi wo
wo ssa</w>
wis sn
wi g</w>
wei her</w>
verwen dung</w>
vabin dung</w>
v ul
unter schei
u hr</w>
u fa</w>
tur m</w>
tran s
ton e</w>
ti gkeit</w>
südo sten</w>
sä kul
stä tten</w>
stru kt
sti ck
span ischen</w>
sp richt</w>
sp h
si ert</w>
se es</w>
schlo ss
sa che</w>
s m
ro t</w>
quart ett</w>
qu ert</w>
proble me</w>
pi l
pass au</w>
oi de</w>
nå ch</w>
natur park</w>
na pol
mö mbri
min u
mari en
mann -
mal a
mai land</w>
maga zin</w>
ma ss
län g</w>
lä n</w>
li schen</w>
le y
kna pp</w>
klär ung</w>
kl eines</w>
kam mer
ka un
ka r</w>
ka -
jähr lich</w>
joa hr</w>
j ø
isch em</w>
inter pre
industri e</w>
i i
ho da</w>
her i
he ss
he m
h ur
gre sste</w>
go b</w>
gla s
geschrie ben</w>
german ischen</w>
gel ö
g schrie
frank en
fra ge</w>
for mat</w>
fernse hen</w>
fei er</w>
f lan
europ as</w>
eröff nung</w>
erzähl t</w>
erschi enen</w>
errei chte</w>
ergeb nisse</w>
entstan dn</w>
ent o</w>
e der</w>
e ch
dua t</w>
dri tt
dr ück
diale kte</w>
demografi che</w>
dar in</w>
dar auf</w>
cit y</w>
châ te
che mie</w>
bü hne</w>
bundes stoot</w>
bru der</w>
bri dge</w>
bo a</w>
biogra ph
bi o
beri chte</w>
be ste</w>
bahn en</w>
b l
autor en</w>
at er</w>
argent in
ar ts</w>
ar b</w>
and an</w>
a x
6 9</w>
6 7</w>
26 .</w>
23 0
194 0</w>
192 2</w>
191 1</w>
00 .000</w>
- lexikon</w>
ö k
zz o</w>
zu ag
zi p
wil den
wech sel</w>
vor la
volk er</w>
va sion</w>
v es</w>
urna u</w>
unta sti
topo graph
to u
tie f
ti us</w>
teil weise</w>
te -
st rä
ssi on</w>
spre ch
spar tei</w>
sin n
schn ell</w>
schi r
sch lä
s mi
ro t
ro i
reg is
ra ch</w>
pre sse</w>
portu gi
pi us</w>
ori gen
or y</w>
or n</w>
onli ne-
obje kte</w>
o line</w>
nord westen</w>
no bel
nieder österreich</w>
neu stadt</w>
nat las</w>
nachfol ger</w>
mut ter</w>
mu a
mon a</w>
mo r</w>
me az</w>
m t
m .
län der
lor enz</w>
lin d
li an</w>
le se
land wirtschaft</w>
land wirtschaft
la y
kro as
kor ps</w>
ko ch</w>
kla vier
kl einen</w>
k us</w>
k ne
k is
k in</w>
jahr gang</w>
inn s
i b
hen d</w>
hal t</w>
haf en
ha u</w>
h o</w>
groß er</w>
gri cht</w>
gesch le
ger d</w>
gem ä
ge wö
ge gn
fun dn</w>
frü her</w>
foign de</w>
flor a</w>
f är
f ung</w>
f ons</w>
er ster</w>
er ende</w>
entwick elt</w>
ent hal</w>
engli sche</w>
ell i</w>
e u</w>
e st</w>
digi tali
dar über</w>
dan eben</w>
cu p</w>
ck haus</w>
cht ung</w>
ch i</w>
c lo
c in
bui dt</w>
brü der</w>
brau erei</w>
br ün
bi ologie</w>
bi ele
bezir ks
betro gt</w>
betrei bt</w>
bet rug</w>
be u
be stehen</w>
be grenzt</w>
bayer natlas</w>
bau m
bal d</w>
auß en
augs burg</w>
audio dateien</w>
ar ch</w>
all ein</w>
a gs
9 9</w>
5 7</w>
3-4 5
3 2
190 3</w>
183 3</w>
österreich ischer</w>
ö l</w>
zwa a</w>
zu g
zo agt</w>
zent rale</w>
zei chen
zahl reiche</w>
x is</w>
wör th</w>
wun der
wua 'n</w>
woiwo d
witt els
wert heim</w>
wen de
wei h
wei dare</w>
wahr heit</w>
vo ll</w>
ver fass
ver fa
v .
ur sprin
untersuch ungen</w>
unt an
un a</w>
u we</w>
u .
tr ennt</w>
tol sto
to ur
the ma</w>
tex ten</w>
tem ents</w>
teil s</w>
te st
t raum</w>
süd östlich</w>
sä chs
städ ten</w>
st- ag
son st</w>
sie g</w>
si chti
si chten</w>
serge j</w>
sehen s
se en</w>
schutz gebiet</w>
schne e
sat z
samm ler</w>
rol f</w>
rei sen</w>
regis se
re ze
profe ssor</w>
produ ktion</w>
pp i</w>
po pul
pi e</w>
parab ola</w>
par k
p ur
p rie
p is
on i</w>
ol o</w>
o l</w>
nochboa orte</w>
nestroy .at
mü ssen</w>
mo s</w>
mi ss
me ch
m á
li m
lauf en</w>
lan gen</w>
l ern
ku it
kri agt</w>
krei z</w>
kra ft
kom mission</w>
klo sta</w>
katholi sch</w>
k rau
jose ph
j t</w>
hum or
hi as</w>
hart mut</w>
gun zen
grün dete</w>
grin dt</w>
gri d</w>
gkei ts
gi t</w>
gemäl de</w>
gele gt</w>
gebi l
ge prägt</w>
ge hen</w>
g wen</w>
führ en</w>
forsch er</w>
fin dn</w>
fili al
fi el</w>
eur o</w>
et h</w>
erz bistum</w>
erfol g</w>
er l</w>
er gän
en tiert</w>
el -
ein trag</w>
dru ckerei</w>
dra mat
dr auf</w>
de i</w>
dat n</w>
dar unter</w>
bundes straße</w>
bud d
brasi lien</w>
bo den
bei spui</w>
begri ffe</w>
be tra
be su
ausstell ungs
aus wahl</w>
au x</w>
au stri
au gen
ar isch</w>
an da
am en</w>
ali tät</w>
a und
a st</w>
9 2</w>
7 9</w>
3- 0
20 -
194 1</w>
191 2</w>
191 0</w>
190 8</w>
13 .
č e
ü wa</w>
ü bri
östar eich
zi mmer
zen i
z l</w>
wil d
wei hna
wahr schein
wa gen</w>
w n
vier tel</w>
vie w</w>
veröffentlich ung</w>
vereini gung</w>
ver lor
vawoit ung</w>
v gl</w>
unmittel bar</w>
uni ted</w>
ung spro
tro tz</w>
ti t</w>
ti ere</w>
teu fel</w>
t un
t et
t ari
sy n
sul zbach</w>
stü hl
ste t</w>
standar d
st on</w>
ss ung</w>
se y</w>
se x
s ern</w>
roth en
renn en</w>
rai mund</w>
r h
pro to
pre uß
peri o
parlam ent</w>
par a
p rat
p lus</w>
p he
os lo</w>
opi en</w>
ob last</w>
nord westlich</w>
n g</w>
muse ums
mor itz</w>
mo unta
mini ster</w>
mi sch</w>
län dern</w>
lom bar
lie ß</w>
letz t</w>
leist ung</w>
le ut
land s
krei se</w>
kompl ett</w>
ko a</w>
ke hr</w>
kathar ina</w>
karri ere</w>
kam p</w>
jubilä um</w>
joa hun
jes us</w>
is e
ins zeni
hoi z
hm s</w>
hit lers</w>
heili g
har d
hans- joachim</w>
gött in</w>
gramm ati
gr and</w>
glet scher</w>
gle i</w>
gl ück
gi or
ge j
ge fähr
g um
g ht</w>
fun k
fol gen</w>
fli ss</w>
f und
existi eren</w>
eu gen</w>
et h
er fin
entstan den</w>
em pl
el ten</w>
einwohn a</w>
eini gen</w>
ein zige</w>
ei ro
ehe m</w>
ea u</w>
e ssen</w>
dy na
dru m</w>
dol lar</w>
di sp
di plo
demokrat ische</w>
dar ung</w>
da r</w>
ca es
bu ag</w>
bran d
bla u</w>
bezir k
bekann te</w>
bedeut ende</w>
be k</w>
be festi
bau ten</w>
archä ologie</w>
an ten</w>
al fons</w>
ahr ung</w>
abenteu er</w>
ab teilung</w>
a i</w>
9 .
8 8</w>
7 2</w>
6 1</w>
195 1</w>
193 6</w>
193 0</w>
13 0
1 14
- sprachen</w>
ö kon
är n
zru ck</w>
z ell</w>
wür di
wähl t</w>
wol f</w>
wo at</w>
wenz el</w>
wei sen</w>
vö lli
verschie denen</w>
universitä ts
unicode -
u kra
tz en</w>
trä ger</w>
tra un
th ür
ta i
ta g
t schaft</w>
t lich</w>
su hr
ston d</w>
stod tei</w>
stand ort</w>
staat es</w>
st b</w>
sse e</w>
ss l</w>
spit z
sogen annten</w>
shi re</w>
sen g</w>
schwei zer
s w
s olo
rü diger</w>
reform ation</w>
re ut
re ser
re chten</w>
ra dio
r é</w>
präfe ktur</w>
plo tz</w>
pl ur
pa ssi
p it
or den</w>
olymp ischen</w>
offizi ell</w>
nu mm
no a
nie da
neu ausgabe</w>
nestroy.at /
ne po
ne i</w>
ne h
n y
mor d</w>
mont ana</w>
moni ka</w>
mo de
mexi kan
mer -
me g
mark us</w>
ma don
ll s</w>
lich ten
li sten</w>
li o</w>
li brett
leu te</w>
le g
le a
lat z</w>
lan ger</w>
kultur geschichte</w>
kubi k
krä fte</w>
ko i
klo ane</w>
kl aus
kel s
kan tone</w>
kab ar
ka l</w>
k k
jän ner</w>
ja ck</w>
j id
inform ation
i an</w>
hö l
hoi bin
ha y
gra phi
glie derung</w>
gi a
gel n</w>
geb ü
fu im</w>
frem d
fra g
fin g</w>
fi m
far ben</w>
f ron
f rein
er hebung</w>
er halten</w>
entfern t</w>
enn e</w>
enn ame</w>
en gel</w>
ein st</w>
eben e</w>
ea hm</w>
e pp
de u
da u</w>
cti c</w>
com mit
ch ron
brie f
brau n</w>
bour g</w>
bo x</w>
berg am
ber gen</w>
ben annte</w>
be stehen
be sch
be la
bal l</w>
ba id
b auf
autohotke y</w>
auf fü
at or</w>
antar ctic</w>
ameri ka</w>
ameri can</w>
akti v</w>
a ver</w>
a ph
a mi
a is
a e</w>
9 4
7 7</w>
5 /
5 ,
3- 79
3- 77
190 6</w>
16 0
- sprochn</w>
är en</w>
â n
zoi h</w>
zo gen</w>
zer stör
za ch</w>
z one</w>
z i</w>
wettbewer b</w>
wei te</w>
wal ther</w>
w rest
viet nam</w>
vi erte</w>
vergan genheit</w>
v á
v ua</w>
unta schei
tür k
ti tl</w>
ti gt</w>
ti gn</w>
techn ische</w>
ta il
sy mb
sul a</w>
stühl meyer</w>
sty le</w>
stra hl
sto ck</w>
sti tut
sti g</w>
sser tation</w>
so u
slo wa
sie b
se y
schö ll
schöll kri
schrie b'n</w>
schof ts
schau spieler</w>
sch el</w>
s .
ri s</w>
ri er</w>
ri en</w>
rein bek</w>
reich es</w>
ran de</w>
q uali
pfor r
pf ei
ost -
oi d</w>
o ani
o .</w>
norweg ischen</w>
no t</w>
ni a</w>
ne m
ne ap
national park</w>
national bibliothek</w>
napol e
nam es</w>
nachbar orte</w>
n te</w>
mi cro
mar co</w>
mag de
li ter</w>
li l
li gen</w>
leb ten</w>
le di
l å
l ern</w>
kte ur</w>
kr aus
konze pt</w>
komö die</w>
ko di
kar dina
kardina l</w>
kan di
kam en</w>
k ärn
ju go
je de</w>
je an</w>
japan ischen</w>
ja z
is lam</w>
ir an</w>
inns bruck</w>
illu stri
i ba
ht ml</w>
ho hen</w>
he x
hal tung</w>
ha und
gu te</w>
gs etzt</w>
gipf e</w>
geschicht liche</w>
gen g</w>
g las</w>
för der
ffen heim</w>
erwähn ung</w>
ent um</w>
eng land</w>
eng an</w>
ell n</w>
ell es</w>
elem ente</w>
ein zi
ein s</w>
ein richtung</w>
ein gestellt</w>
ei sn
e ab
dür er</w>
dru ckt</w>
dies a</w>
di ssertation</w>
da go
co burg</w>
co .</w>
ck a</w>
cht s</w>
car l
c y</w>
bundes republik</w>
bu ach</w>
bra hms</w>
blau e</w>
biele feld</w>
bi e
berei che</w>
befin dn</w>
be tt
be st
be ll
be legt</w>
be ag
b sitz
aus führ
auf stieg</w>
an an</w>
amo i</w>
al ber
a si
a po
8 5</w>
8 .
7 4</w>
7 4
7 .
0 3
ø y</w>
ö ss
é e</w>
æ r
ägy pten</w>
zü gen</w>
zw an
zugs gebiet</w>
zeu g</w>
zen z</w>
zeit gen
zeichn ung</w>
zei d
z o</w>
wör ter</w>
wil fried</w>
wie gend</w>
wichtig stn</w>
wi a
wart ung/
völk er
volks kunde</w>
vide o</w>
vi ls
verbin det</w>
ven edi
varian tn</w>
v all
trotz dem</w>
ti at</w>
the ologe</w>
testam ent</w>
ter en</w>
ta kt</w>
t lin
t enn
t ab
süd tirol</w>
sy sdem</w>
stimm ung</w>
ster ben</w>
steph an</w>
star t
st-ag der</w>
st auf
spu it</w>
sk e</w>
si onen</w>
si mp
schwar ze</w>
schw ein
schrei bung</w>
sch lar
sab ine</w>
sa u</w>
sa gt</w>
s ur</w>
s hin
räum e</w>
ro s</w>
ri tter</w>
ri sch</w>
ri es</w>
rei s</w>
regi ona</w>
re cla
recla m</w>
r ut
präsiden t</w>
pro sa</w>
posi tion</w>
p us</w>
p fa
ort enburg</w>
o ff
nov er</w>
no mans
ni tz
neu zeit</w>
nestroy.at/ nestroy-stuecke/
nepo mu
nead lichn</w>
nat ua
n an</w>
n an
mä d
muse ums</w>
mund art</w>
mo bi
mittl eren</w>
mit 'n</w>
medi zin</w>
mari o</w>
mag gi
maggi ore</w>
ma x
ma ch
m ba
lö wen
lou is</w>
lo kale</w>
lie f
li ta</w>
li gn</w>
lau tet</w>
lan gen
l y</w>
ku mma</w>
kti ons
kt n</w>
kri t
klass ische</w>
kk stb</w>
kam er
ka p</w>
k eller</w>
jü dischen</w>
je dem</w>
in grid</w>
in don
ide e</w>
ho ff</w>
her stellung</w>
her aus
he j
he fte</w>
hau pt</w>
har a</w>
han nover</w>
gu it</w>
gu in
grün dt</w>
grenz en</w>
grenz d</w>
gre ss
gn u</w>
gl es</w>
german ische</w>
geno mmen</w>
gele gene</w>
gei st</w>
ge h
ga st</w>
g' schrieb'n</w>
g ische</w>
g i</w>
g ho
fu sion</w>
fu chs</w>
frankfur t/
foi gt</w>
flei sch</w>
ff a</w>
fej d
favor iten</w>
f u</w>
existi ert</w>
es ischen</w>
eri c</w>
er ei
enn ung</w>
en da</w>
ei cht</w>
e schau</w>
durch fließt</w>
dreiß ig
de es</w>
dan ken</w>
d aun</w>
con stantin</w>
co -
christ ine</w>
ch em
c m</w>
c en
c e-
c co</w>
bö hmen</w>
bs d</w>
brau cht</w>
boar ische</w>
beschäfti gte</w>
bahn →</w>
b ör
arbei t
ann i</w>
and y</w>
an gabe</w>
an en</w>
am or
am a
ag o</w>
a sta
a ser
a bi
8 9</w>
8 1</w>
7 1</w>
3-4 0
27 -
193 1</w>
18 0</w>
10 .000</w>
/ wartung/
österreich isches</w>
zwöl f</w>
zwie sel</w>
zwei t
zeitgen öss
ze i</w>
zahl reichen</w>
y u
wor te</w>
wolf sberg</w>
wesen s</w>
wer ken</w>
we ak
waldaschaf f</w>
vi oline</w>
veröffent licht</w>
verbin dungs
ver stän
ver sch
ver mess
ver lo
ver gleich</w>
ver fassung</w>
ver ban
vaf o
urkun dlich</w>
ur sula</w>
unterstü tzt</w>
uni x-
ungsp flich
ton i</w>
the ologie</w>
the o</w>
te am</w>
süd westen</w>
säkul ar
sym boli
sti ft
ste ch
stat ale</w>
stadtt ei
ss 'n</w>
sph äre</w>
ska u</w>
si ch
selbst verlag</w>
se ch
schen bach</w>
sam e</w>
s äu
s weise</w>
ro wohl
ro se</w>
ro ck
ri st</w>
ri sches</w>
residen z</w>
rei ter</w>
rechn ung</w>
re gin
re de</w>
re al
ra m
ra drenn
r un
qu es</w>
q ua
progra mmi
progra mm
pro fi
pl et
pf af
peters burg</w>
p s
p el</w>
orts namen</w>
organ is
or en</w>
on y
ol la
ol i</w>
od y
ober pfalz</w>
norweg ischn</w>
nor wegen</w>
nenn ung</w>
neap el</w>
n um
n s
mö glich</w>
muse en</w>
mu si</w>
mol l</w>
mo z
mo skau</w>
mittei lungen</w>
me y
loi re</w>
lo hr
lo h
ll ner</w>
lin o</w>
librett o</w>
li li
le h
lay style</w>
la ger</w>
kunst verlag</w>
kompon ist</w>
komm and
ko s</w>
kla sse</w>
k rö
k ni
jun ge</w>
ju den
is lam
inform ations
i ran
hoibin sl</w>
hof n</w>
ho m
hl er</w>
hi mmel</w>
herr n
her bst</w>
ha ber
grün e</w>
groß britan
grin dung</w>
gra mm</w>
gott lieb</w>
gli a</w>
gleichnami ge</w>
glau bt</w>
gem ent</w>
ge stern</w>
ge fü
ge brauch</w>
ge ber</w>
gar ching</w>
ga l</w>
fun de</w>
frei sing</w>
fol gte</w>
fo in</w>
fi r</w>
ff er
far be</w>
far b
est li</w>
er streckt</w>
em fois</w>
ein mal</w>
eihwohna zoih</w>
eigen en</w>
ea wähn
ea st</w>
e y
e gy
dre h
do s</w>
disp laystyle</w>
dis zip
diale ktik</w>
dar gestellt</w>
dafri ka</w>
da für</w>
da ch</w>
d .
com o</w>
clau dia</w>
cir ca</w>
buchstab en</w>
bu re
bron ze
boo k</w>
bo tan
bis her</w>
biogra fie</w>
bin der</w>
bi g</w>
bi er</w>
bet on
berlin er</w>
be li
bayer ischn</w>
ba k
auß er</w>
auto mat
argentin ien</w>
arbei ten</w>
arab ischen</w>
antoni o</w>
aner kann
an ten
an i</w>
an hand</w>
al t</w>
aktu elle</w>
ac ten</w>
ab schie
ab end
ab cha
aa chen</w>
a pf
a hn
a ge</w>
\ displaystyle</w>
8 4</w>
7 /
5 6
4 /
3- 5
3 16
2 9-
193 2</w>
184 9</w>
18 -
15 00</w>
15 -0
10 6</w>
če cho
ü ba
è re</w>
ä thi
ä r</w>
z es
wirk lich</w>
win di
wies n</w>
wid met</w>
wander weg</w>
wa ss
voll ständi
vo lle</w>
vo gel
vereini gten</w>
ver eine</w>
vabin dungs
v es
ur l</w>
unter we
unter richt</w>
unt am</w>
unser er</w>
univer sal
ungs -</w>
tor re</w>
to ur</w>
ther e
tan te</w>
tail s</w>
syste ms</w>
sur -
stär k
ste hd</w>
stau den</w>
staats bibliothek</w>
ssen bach</w>
sp d</w>
sol len</w>
sieg fried</w>
sie del
ser v
sen der</w>
sel ben</w>
sei ten
schwe dische</w>
schlar af
sch t
sch mid</w>
sch lich
sar ah</w>
samm el
sach sen</w>
rund funk</w>
ru mä
ri schn</w>
rel ativ</w>
re tt
re st</w>
radi o</w>
r hein</w>
quin tus</w>
qu er
pun kte</w>
publi kum</w>
präsen z</w>
pra kt
poin t</w>
pi a
ph ä
pf äl
pazi fi
pal äst
pa ar</w>
os wald</w>
organ isi
o in</w>
o e
nürn berger</w>
näch st
neu er</w>
nepomu k</w>
ne hmen</w>
nation ale</w>
nach wort</w>
mü hl</w>
mömbri s</w>
mytho logie</w>
my then</w>
mon at</w>
mo cht</w>
mi tn</w>
men s
mehr a</w>
mathe matik</w>
ma cht
ludwi g
lon ga</w>
lin z</w>
li ad</w>
ledi glich</w>
le t</w>
latein ischn</w>
la ss</w>
la ke</w>
kur ze</w>
kran z
kam mer</w>
jo s
jahre s</w>
jaco b</w>
ja ck
j em
italien isch</w>
in a
humor ist</w>
hr zei
ho l</w>
ho her</w>
hl en</w>
hein rich
hei tige</w>
hal te</w>
größ ere</w>
gri mm</w>
gre dd</w>
grafen au</w>
graf ische</w>
gol d</w>
gn ano</w>
glet scha</w>
glei che</w>
gi ov
gesch ü
geogra phie</w>
gen dn</w>
geheim nis</w>
geg r</w>
gebiets reform</w>
gab ri
g ler</w>
g d
för mi
fun den</w>
fre und</w>
foto grafi
fi x</w>
fel der</w>
fami j</w>
evangeli sche</w>
erober ung</w>
erd be
er ung
er lenbach</w>
er be</w>
entwick elte</w>
end gül
en det</w>
elekt ro
el f</w>
ein satz</w>
ein leitung</w>
eigent lich</w>
ehr en</w>
e ul
e mm
durch schnitt
dr o</w>
donau -
do i
dire ktor</w>
der ungen</w>
de t
daten bank</w>
da me</w>
da mali
da durch</w>
commit tee</w>
char ts</w>
ch -
ca stell
c ur
bö hm
bur y</w>
bu sch</w>
brin gt</w>
bri gi
brei t</w>
bolivi en</w>
bo den</w>
bm w</w>
bischö fe</w>
bestand teil</w>
bei dn</w>
be weg
be s</w>
be et
bar en</w>
ba y</w>
auf n</w>
au ss
at es</w>
aser baid
arbei ter</w>
arab ische</w>
ar th
an th
an sichten</w>
an schluss</w>
am berg</w>
ali en</w>
akti vi
agn es</w>
ach a</w>
ab end</w>
9 1</w>
9 0-
5- 0
44 44
4- 0
199 0er</w>
193 7</w>
189 8</w>
180 3</w>
1- 8</w>
1, 5</w>
1 12
zur ück
zru ck
zo g</w>
zi on</w>
zeich nete</w>
y en</w>
wor den</w>
wohn ort</w>
wo ppn</w>
wo arn</w>
willi am</w>
wi ch
weni ger</w>
welt weit</w>
we ster
we at
w ell
w an</w>
vu i
vor wort</w>
vo ag
vic tor</w>
ver trag</w>
ver bun
ver arbei
va ke
v re
un middl
ul m</w>
to t</w>
ti erte</w>
tex as</w>
ten bach</w>
tem per
taus end</w>
t ron
süd -
sä ch
stur m</w>
stro m</w>
strei t</w>
strau bing</w>
stimm en</w>
sti e</w>
stej t</w>
stan den</w>
st unde</w>
st rö
ss ing</w>
spu i
so wohl</w>
so ft</w>
sin gles</w>
si em
ser vat
se kre
schö pf
schö n</w>
schutz pat
saar brücken</w>
s é
s af
rä u
rumä nien</w>
ru ss</w>
ru män
re por
r hö
r -
quodli bet</w>
pro zent
prei s
pp er</w>
plan ungs
phi l
perspekti ven</w>
pea son
p län
os kar</w>
ort schoftn</w>
ort schoft</w>
ort n</w>
olo gi
obern dorf</w>
ober laa</w>
ober halb</w>
nort h</w>
nordo sten</w>
nord west
no mi
nat o</w>
nam ens</w>
nach druck</w>
mün zen</w>
mün dung</w>
mü ll
moz art</w>
mor gen
min er
min dest
micro soft</w>
me da
maximili an</w>
ma ck</w>
m é
m å
m einer</w>
ludwi g-
lon d
le s-
le i</w>
kun d
kti v</w>
kti ona</w>
kri ags
konz ert</w>
kon fer
koloni e</w>
kol um
ko a
kin a</w>
ki e
kar i
joahun dat</w>
jo chen</w>
japan ische</w>
j ar
is ar</w>
inter net
ini ti
hu i
hof mann</w>
hoch schule</w>
ho ms</w>
hit ch
hitch co
hin aus</w>
he er
haf t</w>
hab t</w>
hab er</w>
ha gen</w>
h ori
gött ingen</w>
gschrie m</w>
grund lage</w>
groß es</w>
got tes
gesprä ch</w>
geor gien</w>
gen au
gei sel
gegen über</w>
gedi cht</w>
gebur t</w>
ge t</w>
g 'n</w>
fua ß</w>
fri a
fre qu
forsch ungen</w>
for mat
fo ah
festi val</w>
fa den</w>
f eri
ett o</w>
es ischa</w>
er neu
er kenn
entdeck ung</w>
en dn</w>
el sa
el mar</w>
eiro pa
e j</w>
dör fer</w>
dum ont</w>
dres den</w>
dien ste</w>
deutsch lands</w>
denk mal</w>
de e</w>
d re</w>
ck el</w>
cht el
chi en</w>
che f</w>
ch at
cam pe</w>
c chi
böh lau</w>
burgen land</w>
bure au</w>
bur k
bro ckhaus</w>
braun schwei
bo h</w>
betriebssyste m</w>
ber t
benedi kt</w>
beet ho
be lie
be gei
b é
b i</w>
az te
auto mobil
augu st
auf klärung</w>
arth ur</w>
ar bat
ar an
an teil</w>
an ger
an gaben</w>
amerikan ischn</w>
am tliche</w>
am az
ali si
al lo
al ben</w>
afrikan ische</w>
ad ol
9 7</w>
9 ,
8 /
5 1</w>
3 7-
3 0-
2 /
194 3</w>
192 9</w>
192 1</w>
190 9</w>
190 4</w>
19 .
189 0</w>
188 6</w>
1 °</w>
1 20
über tragen</w>
zu af
zo a
zi r
zi em
x .</w>
win ter</w>
wien s</w>
weihna chts
weg wei
we chs
wal t</w>
vi o</w>
ver anst
veranst alt
venedi g</w>
vat re
va zeichn
v ä
ur kunde</w>
ur a</w>
unter main</w>
unt at
un ver
um e</w>
u re
tä ten</w>
tä r</w>
tt o</w>
tre ten</w>
tra gö
ti tel
ti pp
ti ger</w>
ti erung</w>
territ orium</w>
ten den
tech ni
tat säch
ta s</w>
sym bo
suhr kamp</w>
su dan</w>
stati stische</w>
sta r</w>
st isch</w>
spei st</w>
sour ce</w>
slowa kei</w>
skan dina
sin gen</w>
si on
si mi
sho w</w>
setz ungen</w>
schöllkri ppen</w>
schwa bach</w>
sch al
sc ri
sain t</w>
sa s</w>
s hausen</w>
roman e</w>
ro d
rin g
ri chter</w>
rhein -
regisse ur</w>
re gen</w>
ran g</w>
ral f</w>
r in</w>
r d</w>
proto kol
plat t
phä no
pf lich
per son</w>
par ten
par ks</w>
oi pha
nor mal
ne g
na u</w>
n ein</w>
n .</w>
män n
mul ti
mp f</w>
mon ti</w>
mo os
mo or</w>
mitglie da</w>
mit tel</w>
mi m</w>
me ahr
mau tner</w>
mat hias</w>
län dische</w>
lich -
li ne
li er</w>
li er
leon hard</w>
lau denbach</w>
land schafts
land sberg</w>
kranz mayer</w>
konz erte</w>
kloster s</w>
klin gen
kl et
kl am
ker nel</w>
kat he
kap it
kam m</w>
ka pe
k lan
jähri ge</w>
jam in</w>
j on
itä t</w>
isch 'n</w>
inte gri
in us</w>
in stitut
in fo
in er
i u
hän di
hoi d</w>
hoa ßn</w>
ho ch</w>
hn a</w>
hl en
historisch- kritische</w>
haus es</w>
haupt ort</w>
han s
h und</w>
gut en
gu ten</w>
gschi chte</w>
groß n</w>
gr un
go id
giov anni</w>
gi tar
gi a</w>
gen t</w>
gel d
ge geben</w>
gar ten
gan zen</w>
g lichen</w>
g g
g fundn</w>
g all
für sten
fu ß</w>
frankfur ter</w>
fra gen</w>
fluss es</w>
finan zi
fin ale</w>
fer ry</w>
famili en</w>
fami j
f å
f ern</w>
ex peri
es a</w>
er leb
er baut</w>
en de
en cy
el lo
eini gung</w>
ehemali ger</w>
ea hebung</w>
e p</w>
e del
distri bu
dicht a</w>
di kt
der te</w>
denkmal pflege</w>
d unga</w>
comput er
col le
chines ischer</w>
ch am</w>
cci o</w>
car lo</w>
ca pi
bur gen</w>
bui dn</w>
bu ag
brun ner</w>
bor g</w>
bis lang</w>
bi an</w>
bet ri
ber gs</w>
ben jamin</w>
ben ach
be ssenbach</w>
be fe
basi s</w>
baro ck</w>
ba l</w>
aus ch</w>
at or
anwen dung</w>
antarkt ischn</w>
andro id</w>
an do
alt stadt</w>
allgemein en</w>
al ban
administr ative</w>
ab sol
a vi
3-8 8
3-42 3-
2- 0
185 1</w>
183 2</w>
15 -
1 16
, 2</w>
öst lichn</w>
ó w</w>
ã o</w>
zusammen hang</w>
zol l</w>
z wer
z eascht</w>
z ant
x aver</w>
württem berg</w>
wittels bacher</w>
wirk lichkeit</w>
wie da
west fal
wer te</w>
wel cher</w>
wei sn</w>
wei da</w>
we der</w>
wahrschein lich</w>
völli g</w>
vor bei</w>
vi t
verwaltungs sitz</w>
verfü gt</w>
ver tei
ver s</w>
ve i</w>
v ard</w>
unterstü tzung</w>
ung arische</w>
um bau</w>
tru ppen</w>
tri o</w>
theat a
th u
ta ch</w>
süd westlich</w>
stre ck
stoo tn</w>
st .-
ssi tz</w>
ssen e</w>
ss on</w>
ss in</w>
sp ü</w>
sp at
sk y
sido stn</w>
schu ster</w>
schu in</w>
schrö der</w>
schriftstell er</w>
schlo ssn</w>
sch är
sch west
sch atz</w>
s ale</w>
rowohl t</w>
ro ß
ro ten</w>
rit ter
rin gen</w>
ren o
re ktor</w>
r ü</w>
r ø
r eng
r einer</w>
proje ct</w>
presiden t</w>
pp ach</w>
piet ro</w>
phili pp
pf en
p öl
p tion</w>
p lu
p fe
p ab
os man
ober en</w>
o af
nord östli</w>
ni l</w>
ni ko
nau r</w>
n ü
mu sste</w>
mor e</w>
mon te
min ut
milli ona</w>
militä rische</w>
mech ani
me i</w>
massi v</w>
markt gemeinde</w>
mann heim</w>
m einen</w>
lich s</w>
li sche</w>
lan z</w>
köni gs</w>
kur s</w>
kunst denkmäler</w>
kt s</w>
konfli kt</w>
kon tro
kon go</w>
ko s
ko mm</w>
klo asta</w>
klo ana</w>
kli ma</w>
kl einer</w>
kem pten</w>
ke mma</w>
kam pf
kaf ft</w>
ka sp
k naur</w>
jün ger
joarhun dad</w>
j ens</w>
itali a</w>
is h</w>
inn ern</w>
inhal ts
inhal t</w>
i ma
hü tten</w>
hü tte</w>
häl fte</w>
ho ck
hitchco ck</w>
herzog tum</w>
her der</w>
her ber
hen ri</w>
heimat buch</w>
hau er</w>
hat ten</w>
hapt ort</w>
hal l</w>
h us</w>
gö tz
gän ge</w>
großbritan nien</w>
gro d</w>
grammati k</w>
gr au
gr ation</w>
gott es</w>
gol dene</w>
gn annt</w>
gmo cht</w>
glei chen</w>
gi g</w>
gewö hn
gesprä che</w>
gesamt ausgabe</w>
geor d
ge hend</w>
ge führt</w>
ge b</w>
g t
fre y
fel s
fehl er</w>
fab ri
f ten</w>
f isch</w>
f i</w>
ex tre
eu er
eu ch</w>
eröff net</w>
erdbe ben</w>
er w</w>
er eign
enz en</w>
entspre chung</w>
ent stondn</w>
en dung</w>
eisen bahn</w>
eiropä ischn</w>
ehemo lige</w>
eff ent
dor o
diszip lin
din gen</w>
dichter s</w>
di um</w>
des halb</w>
de in</w>
dar um</w>
dameri kan
cou plet
cht a</w>
chi em
chen de</w>
car a
caes ar</w>
c ens
c ca</w>
bürger meister</w>
bär en
by zant
bur ga</w>
buch handlung</w>
bro d</w>
brei t
bran dt</w>
bor ges</w>
bo ss
bil dungs
bil der
biblio graph
bi ll
bi k</w>
bel l</w>
bekonn t</w>
be er</w>
baro ck
b r</w>
ax el</w>
auto bahn
austra lien</w>
aussa dem</w>
aus druck</w>
auf bruch</w>
atlan ti
archite kt
ar en</w>
antarkt ischen</w>
angel es</w>
an us</w>
an a
ad s
ad or
ad o
a ssi
a cht
50 00</w>
50 .000</w>
5 6</w>
3-4 4
25 0</w>
2 1
2 ,5</w>
192 7</w>
190 1</w>
187 1</w>
186 2</w>
186 0</w>
17 .
1 17
0 .
é s</w>
ä m
zent ru
ze se</w>
ze k</w>
z zen</w>
z za</w>
z sam
y ter</w>
y d</w>
wur zbach</w>
wo od</w>
witt bach</w>
wirt schaf
wir ken</w>
wie se</w>
wichti ger</w>
wen ig
weiß en
weiter hin</w>
war hol</w>
wan gen</w>
wal es</w>
wa shin
volks musik</w>
voi k</w>
vi olin
verlags gesellschaft</w>
verbrei tung</w>
ver lei
ver fahren</w>
vab ro
ur s</w>
unter gang</w>
un n</w>
un bekann
ua sprin
u ffenheim</w>
to wn</w>
to il
ti t
ta be
t isch
t hal</w>
süd deutsche</w>
sy d
su san
streit kräfte</w>
streich quartett</w>
stockhol m</w>
sthe orie</w>
stet s</w>
stell ten</w>
ste dt</w>
stat tung</w>
stat es</w>
stan z</w>
sta l</w>
st ol
ss -
spit ze</w>
sp ur
sp ada</w>
si mon
sel n</w>
se u
schwe den</w>
schwar z
schutz heilige</w>
schro ll</w>
schlo ß</w>
sach sen
sa t</w>
sa chen</w>
s um</w>
ru f</w>
rosen heimer</w>
rit ten</w>
richt ungen</w>
rem ischn</w>
re ste</w>
re gl
re gel</w>
qu ea
poli zei
poli s</w>
po ten
part na
pa s
origen äu
ori a</w>
opp land</w>
oli ver</w>
o o
o ben</w>
o at</w>
no is</w>
neu n</w>
neu -
nead li</w>
namens geben
n y</w>
mün z
mp el</w>
model l</w>
medi at
me s
magn a</w>
magde burg</w>
madon na</w>
ma x-
ma g</w>
ma chte</w>
ma c
m ör
m uni
lin a</w>
lie ber</w>
lie ben
li ve</w>
li s
li an
letz tn</w>
lein wand</w>
lei cht
le m
lau er</w>
la den</w>
l bach</w>
könig reichs</w>
kri se</w>
konson ant</w>
komp le
kommun al
komm erzi
komm entiert</w>
komm ent
ko ta</w>
ko fen</w>
kilomet ern</w>
ki az
kali for
k ers</w>
j etz
is weis</w>
is men</w>
in stal
in schrift</w>
in de
i x</w>
i l</w>
hr n</w>
hori zon
hol t</w>
ho itn</w>
hin zu</w>
hen ry</w>
hei tn</w>
ham s</w>
hal ten
hafen lohr</w>
ha p
ha ar</w>
h und
h ua
h is
gu at
grün de</w>
gru yter</w>
gnenn d</w>
gleich nomi
gi k</w>
gerä t</w>
geno ssen
gele genen</w>
ge wann</w>
ge danken</w>
ge d
ge bo
ge baut</w>
gar a</w>
g ton</w>
g tn</w>
g h</w>
g ger
för derung</w>
früher e</w>
frie den
frei staat</w>
franc esco</w>
fort ran</w>
fer r
fe kt</w>
fan den</w>
famili enname</w>
f ul
f ischen</w>
f in</w>
et ten
et a
enz o</w>
entsprechen d</w>
emi l</w>
eirop a</w>
einwohner zahlen</w>
ein gang</w>
ei t</w>
e or
e ari
dt v</w>
dokum ente</w>
dn b</w>
din kels
di scher</w>
deutschsprachi gen</w>
den de</w>
de ck
dan och</w>
dan o</w>
d ner</w>
d m</w>
d lichn</w>
d lichen</w>
d 'n</w>
clau de</w>
chte s
ch berg</w>
c on</w>
c olo
bundes stroß</w>
bru k
bro o
br ück</w>
bezi e
bewohn er</w>
beschrei bt</w>
ben s</w>
bei spiel
be le
be frei
be ck
bach -
ba sel</w>
b stähd</w>
b lem</w>
b fin
aufge führt</w>
auf zügen</w>
atlan tik</w>
at uren</w>
at hen
archi e</w>
ar zt</w>
ar s</w>
ar m
ap rü</w>
and ré</w>
an z
an ung</w>
am bro
ali sierung</w>
al tar</w>
al and</w>
ad s</w>
ad ri
ad l</w>
ac t</w>
a spe
6 6</w>
3-9 0
20 18.</w>
2 8-
19 -
186 7</w>
15 .
14 0
0 /
/ /</w>
- ver
äst het
zy per
zwo at
zwei ter</w>
zusammen fluss</w>
zu vor</w>
zu schau
zu gleich</w>
zi on
zi ger</w>
zi g
zeit punkt</w>
z heim</w>
x en</w>
wol len</w>
wo ss
wissenschaft ler</w>
win kel</w>
wer ks
weiter er</w>
weit are</w>
w y
vu al
vor les
vor lage</w>
vor han
vils hofen</w>
viet nam
vi ze
veröffentlich te</w>
verein s
ver trie
varian te</w>
va s</w>
v au
us- dollar</w>
ur aufführung</w>
un weit</w>
un esco</w>
umfo ssd</w>
u v
tü bingen</w>
tre ffen</w>
to i
to des
tn isse</w>
tiro ler</w>
tha r</w>
th ur
techn ologie</w>
te am
su i
stö ll
stän de</w>
städ tischen</w>
studen ten
stod gebiet</w>
sto i
stei er
star ke</w>
stadt geschichte</w>
stadt gebiet</w>
st unden</w>
sprin ger</w>
spie gel
sp latz</w>
sogen annte</w>
sizi lien</w>
sie ht</w>
sie ben
si ve</w>
si gn</w>
sei d</w>
se -
schen k</w>
sch on
s mit
s mann</w>
rö h
russ ischn</w>
ri ss</w>
ri chti
rei n</w>
regierungs bezirk</w>
ra b
publi us</w>
psy cho
por tal</w>
pe g
pab lo</w>
pa ssa
p- ho
p ti
ost heim</w>
orche ster</w>
or et
olla dings</w>
ol den
of ang</w>
nä m
nä h</w>
nä chste</w>
num er
nor wegn</w>
noch foi
no ti
ni mma</w>
neu mann</w>
neben fluss</w>
national sozialismus</w>
na s
n ymp
n aum</w>
mühl en</w>
mäd chen</w>
model le</w>
mo zar
mm ers
mm ern</w>
mitt n</w>
mi ller</w>
mer a</w>
meer es
me ssen</w>
mar kan
ma u</w>
ma sk
ma gi
ma d</w>
m c
lu is</w>
lo thar</w>
lo t</w>
lo sst</w>
lo ch
lieb te</w>
lie der
lich 'n</w>
leist ungs
lei ter</w>
lei den
kü stn</w>
kü che</w>
kun fts
kon serv
kommuni kation</w>
kom bin
kol ber
kohl ha
kohl en
kne cht</w>
kirch dorf</w>
kin esischa</w>
kenn zeichn</w>
kat z
kar ten
kam p
ka t</w>
k lini
k aum</w>
ju lia</w>
jos é</w>
ja c
j .
it en
is s</w>
indi aner</w>
in ischen</w>
identi tät</w>
i ra
ho b
hn t</w>
hie ß</w>
hi p-ho
her stell
hem sbach</w>
hel den</w>
he a</w>
ha bi
h es</w>
h enn
gö tter
gär ten</w>
gua t</w>
grou p</w>
grenz n</w>
gol denen</w>
gn o</w>
gli ano</w>
gi ert</w>
gen e
gen -
gemä ß</w>
ge hei
gau es</w>
g' n
g wi
g we
g sto
g gio</w>
fä llt</w>
frie de</w>
fre und
frankfurt/ m</w>
for mi
fo i</w>
fernseh serie</w>
fall en</w>
fa kul
fa c
et o</w>
et n</w>
essa ys</w>
er ts
er sch
ent long</w>
ent hoit</w>
ent al
en zi
en ge</w>
eisen stadt</w>
ein heiten</w>
ein heit
ein gesetzt</w>
ein gemein
ein ander
eg on</w>
eb ba</w>
dépar tements</w>
dri tter</w>
don n</w>
disk u
di th</w>
di a
des -
den berg</w>
deit scha</w>
de ssn</w>
de ine</w>
d ort
cor por
co ur
co mi
ck el
cht en
chri sti
chines ischen</w>
chen bach</w>
ch u
ch ler</w>
c li
c .
bü hnen
bul gar
bru ck
bro w
brit ischen</w>
bezir ke</w>
betei li
bestimm te</w>
bern ard</w>
beri hm
ber chtes
ben utzt</w>
bei t</w>
bedeit ung</w>
be stä
ba ck
ba chs</w>
b son
b l</w>
ausge wähl
aus en</w>
auffü ahrung</w>
auf tra
auf sätze</w>
auf nahmen</w>
auf l.</w>
at t
aschaf f</w>
archi v
archi pel</w>
ar an</w>
an lagen</w>
an ia</w>
an dam</w>
amo asta</w>
amaz on
alter n
alpha bets</w>
alex and
al le
al ba
al b
ais san
ad ler</w>
a gri
9 3
9 1-
9 00</w>
9 /
8 ,
5 .000</w>
4 3
30 00</w>
3- 7
3- 63
198 0er</w>
185 8</w>
183 9</w>
183 5</w>
16 00</w>
12 .
. at</w>
äl teste</w>
zö llner</w>
zauber er</w>
z .
y lo
y al</w>
x en
wort h</w>
wol l
wo a
wer de</w>
wejd kriag</w>
wei mar
wei da
wei ber
wehr macht</w>
wegwei ser</w>
wan del
w am
vor stadt</w>
voll ständig</w>
vo n
vic tori
vi k</w>
versi cher
verlor en</w>
ver lauf</w>
ve y</w>
va sua
v um</w>
ung spoli
ung sin
un ob
un kt</w>
un i</w>
un gen
ua spr
u ßen</w>
u te</w>
trin ken</w>
tre tn</w>
to de
ten s</w>
ta gebü
süd liche</w>
sän ger</w>
säkular isation</w>
sy non
su mma</w>
studi um</w>
strä ger</w>
sto a
stei gt</w>
stei ger
stam men</w>
staat lichen</w>
st es</w>
spi rit
spess arts</w>
sp or
sp ani
soziali stische</w>
sozial en</w>
son dern</w>
soi zburg</w>
so s</w>
so krat
sk el</w>
sin ne</w>
sig na
sie z</w>
sid westn</w>
si l</w>
si ad
setz te</w>
ser -
sel le</w>
sel eu
schwä b
schwi eri
schriften reihe</w>
schn ell
schlü ssel</w>
schlo cht</w>
schi mpf
schein t</w>
schau t</w>
schat ten</w>
sch lö
sch ein</w>
sch am
san s</w>
san i
sam keit</w>
sa ale</w>
rou te</w>
ro e</w>
ren g</w>
ren ate</w>
rein hold</w>
re ck
radrenn fahrer</w>
ra mi
r het
r ent
prote stant
portu gie
portugie sisch</w>
pol ar
piet smi
philoso ph</w>
phan ta
person en
pau li</w>
paläst in
p he</w>
p ei
ori o</w>
olog isches</w>
olog ischer</w>
olog isch</w>
oi bum</w>
offen bach</w>
ob wohl</w>
ob st
ob servat
o w</w>
o h
o den
o ab
nutz ung</w>
ne st
ne hm
ne ck
nach er</w>
na he
n s-
n hn</w>
mühl hi
mühlhi as
mög lichkeiten</w>
mp e
mon a
mm an</w>
mittelalter s</w>
mittelalter lichen</w>
militä r</w>
michel bach</w>
may r</w>
mar x
man che</w>
mag dal
ll es</w>
lin us</w>
lin ge</w>
lin de</w>
liebe s
lie ben</w>
li tz
li sch</w>
li gkeit</w>
li br
lau ren
la a
l ær
l berg</w>
ku pfer
kron e</w>
kri st
kri min
konfer enz</w>
kolber moor</w>
kiaz ung</w>
kenn zeichen</w>
ke y
ke te</w>
kauf mann</w>
katholi scher</w>
kalifor nien</w>
kahl o</w>
kaffe e
kaf kas</w>
kab in
ka s
k y</w>
k u</w>
k nei
k ler</w>
k g</w>
jugo sla
ju an</w>
johan ne
joarhun dert</w>
jaz z</w>
jahrhunder ten</w>
j ungen</w>
in o
ihr n</w>
i wan
i st
hö hle</w>
hy m
hun dert</w>
hu t</w>
holl än
hol ungs
hol stein</w>
hof mark</w>
hoch schul
hi mmel
herr schafts
herr en
herber gt</w>
hei tign</w>
haupt stod</w>
hau t</w>
hau m</w>
hand schrift</w>
hal te
h j
gö tter</w>
griech ischer</w>
gre g
go a</w>
glen gne</w>
gewer be
geschä fts
ger ung</w>
geor dn
gebur ts
gebiet s</w>
gebiet es</w>
ge st
ge bai
gal t</w>
fur ter</w>
frem de</w>
franz -
fran zo
foa ht</w>
flä chen
flu cht</w>
fest ung</w>
fei er
fau st</w>
euer heim</w>
et ts</w>
es ch</w>
es -
erzi eh
ers berg</w>
erneu t</w>
er win</w>
er ter</w>
er gol
entwick lt</w>
entsprin gd</w>
e pi
dor ff</w>
dokum enten</w>
do pp
diö zese</w>
din a</w>
di st</w>
dest li</w>
der l</w>
demokrat ischen</w>
deit sch</w>
de ra
de par
dat e</w>
dar f</w>
da vis</w>
d p</w>
d ling</w>
corne lius</w>
col um
col a</w>
cens us</w>
c tion</w>
braunschwei g</w>
br ut
br ennt</w>
blat t
bischof s
bir ken
biblio graphie</w>
beru fs
berchtes ga
bei spu
begri ff
bedeut end
be sten</w>
be herbergt</w>
be gegn
be fand</w>
be cker</w>
bar t
bar a
bach tal</w>
b und
b ner</w>
autono men</w>
autono me</w>
austri a</w>
ausstellungs katalog</w>
auf gelö
auf g
auf 'n</w>
au stro
au di
ati ven</w>
at ra</w>
at mo
ar y</w>
ar in</w>
ar gum
aph or
anti ken</w>
ann ette</w>
an u
an te</w>
an na
an gol
an da</w>
am m
am er
akt uali
ab tei</w>
ab kür
8 7-
7 ,
6 /
55 55
5 2
33 33
3-4 7
3- 6
25 -
201 7.</w>
190 2</w>
189 7</w>
189 2</w>
18 50</w>
13 0</w>
1 12</w>
.0 00
ück sichti
ü wa
ök ologie</w>
än ge</w>
zyper n</w>
zwo atn</w>
zi tat</w>
zent ri
y ste
xi i</w>
wär e</w>
wun der</w>
woiwod schaft</w>
wo u</w>
wissenschaft lichen</w>
wirtschaft liche</w>
win fried</w>
win d
wia zburg</w>
werk stoffe</w>
wer ks</w>
welt meister
wel l</w>
weimar er</w>
wal la</w>
w ås</w>
w ri
vor m</w>
verbun den</w>
verbrei tet</w>
ver gi
ven e
val og</w>
vake a</w>
ut ta</w>
ut en
unter halb</w>
ungspflich tig</w>
unabhängi g</w>
un da
ul a</w>
typ ische</w>
tten bach</w>
tra g
tan z</w>
tal er</w>
t ums</w>
t tet</w>
t .</w>
sü damerika</w>
syd ney</w>
su l</w>
sti r
star b</w>
staat en
sta hl
st ritten</w>
sol l
sol daten</w>
sk la
sie dl</w>
si tu
si er
si bi
sen de</w>
se t</w>
schü tz
schwe dischen</w>
schutzpat ron</w>
schoft liche</w>
schmid t-
schließ end</w>
schlie ßt</w>
schi cht</w>
sch win
sch burg</w>
sam t
sa phi
sa i
sa ch</w>
sa al</w>
s wer
s l
s har
s de
räum en</w>
ron g</w>
ro yal</w>
rin ch
rie l</w>
rhö n</w>
reich n</w>
regin a</w>
reda kteur</w>
re y</w>
ra h
r unde</w>
r p
que j</w>
qu arti
publi c</w>
pre mi
po ts
po s</w>
po p</w>
po l</w>
physi kali
pazifi k</w>
p utz
p har
p enn
or an
on g</w>
ol s</w>
ody sse
oan zl
o ten</w>
nymp hen
ns da
nach a</w>
na go
n g
n ano
münchen er</w>
mäß ige</w>
muse um
mon gol
mon ate</w>
mo asta</w>
mm en
mi r
mi kro
metz ler</w>
metropolitan stod</w>
metropolitan stadt</w>
met ern</w>
mess ung</w>
medi zin
me ea</w>
mar c
man g
mai l</w>
ma sse</w>
ma chen</w>
m ück
m urnau</w>
m p</w>
lud ger</w>
lu st</w>
lu ft</w>
lu c
lo w</w>
lo hen
lin ken</w>
li tät</w>
li bre
lese buch</w>
le men
landes regierung</w>
la t</w>
kör per</w>
kör per
köni gin
kulture lle</w>
kultur -</w>
ku rier</w>
kon kur
kon fe
ko sten
klo a
kle z
kateg orie</w>
karl- heinz</w>
kapi tel</w>
kal ender</w>
kais a</w>
kade mie</w>
ka i</w>
ju dith</w>
joseph -
jem en</w>
j ol
italien ischer</w>
italien ischa</w>
is ar
inter net</w>
in ische</w>
in dische</w>
i stan</w>
i lli
höch sten</w>
hu a</w>
hoi te</w>
ho mo</w>
her aus</w>
hen g</w>
hel m
hei ßen</w>
he bt</w>
haus halte</w>
han ns</w>
haf te</w>
ha ar
guin ea</w>
gu d
grün en</w>
grö ße</w>
gri agt</w>
gr in</w>
go i
gnu mma</w>
gleichnomi gn</w>
gle gt</w>
glau ben</w>
gho bt</w>
ghan istan</w>
gestal tung</w>
ges und
geb ro
ge ologie</w>
ge halten</w>
gan gen</w>
gab riel</w>
ga unz</w>
g ni
fü a'n</w>
fri da</w>
frei es</w>
fra ktion</w>
fo box</w>
fo am</w>
flä chen</w>
flori an</w>
fim f</w>
fi chtel
fi as</w>
fe ste</w>
fan ta
fa ce
f p
evangeli schen</w>
ett i</w>
erklär t</w>
erfol greich
erb folge
er setzt</w>
er reich
er lä
ek ke
ein fluss</w>
eg ger</w>
e. v</w>
e ver
e sien</w>
e ger</w>
dyna stie</w>
duach fliaßt</w>
dinkels bühl</w>
deut lich</w>
de ggen
dam pf
d te</w>
cou ple
ck l</w>
chro ni
christ lichen</w>
chi a
ch d</w>
c z
c um
brun o</w>
brei te</w>
bra chte</w>
boch um</w>
bla ck</w>
bir k
biogra phi
bi o</w>
bezieh ung</w>
bestand s
besitz er</w>
beschäfti gt</w>
ber ücksichti
ber e
benach bar
bekann teste</w>
beispiel sweise</w>
bearbei tet</w>
be wahr
be ein
bar th</w>
bai rischen</w>
b on</w>
au to</w>
arn old</w>
ari o</w>
arbeits gemeinschaft</w>
ar en
an zei
an zahl</w>
an schluss
an lä
an hang</w>
an geb
ala ska</w>
al i</w>
aktu ell</w>
akadem ischer</w>
ahr a</w>
af ghanistan</w>
ad re
ach ten</w>
a ba
97 -
7 3-
6 ,
3- 59
23 0</w>
22 -
201 9</w>
193 5</w>
192 6</w>
191 5</w>
188 1</w>
188 0</w>
187 5</w>
183 7</w>
183 4</w>
. 6
' t</w>
über arbeitete</w>
ö v
ö b
é n</w>
° c</w>
zwei gt</w>
zusammen arbeit</w>
zuge höri
zu erst</w>
zie ht</w>
zi o</w>
zi ert</w>
zeugn issen</w>
zeit ungen</w>
zei tz
x vi</w>
wö d
wä ss
wu chs</w>
wo ssa
win kler</w>
wil le</w>
wi ki</w>
wi ck</w>
wi ak
wesent lichen</w>
wesent lich</w>
wer n
wel le</w>
wein bau
wei ßen</w>
we a
washin gton</w>
war en
war a</w>
vual åg</w>
volk es</w>
voiks ze
vis ory</w>
vikt ori
vie ch
vertre ter</w>
verlie ß</w>
verlags -
verkauf te</w>
ver glei
vawen dung</w>
vat ei
v å
us- amerikanische</w>
ur u
uru gua
unterwe gs</w>
unmiddl boa</w>
un s
um welt
um stritten</w>
um stri
ul mer</w>
ul ar
u mma</w>
u mar
ty p</w>
tt ner</w>
tsche chien</w>
tri er</w>
tradition ellen</w>
tou ch</w>
ton -
to ten
to s</w>
to p</w>
ti af
there sia</w>
the se</w>
the a</w>
ta u</w>
ta -
t ra</w>
t ke</w>
sö wa</w>
sy nago
susan ne</w>
su n</w>
stä i
stu i</w>
stu ck</w>
stra ss</w>
stet ten</w>
stei g</w>
ste te</w>
ste ck
starn berg</w>
star t</w>
star ken</w>
st ra</w>
st ischn</w>
st ationen</w>
ssi g</w>
ssel bach</w>
spra ch</w>
sk is
sing stimme</w>
sin ger</w>
signa l</w>
sig mund</w>
sid westli</w>
si st</w>
seri en</w>
sej m</w>
se ver
se ppe</w>
se ele</w>
schwer punkt</w>
schwein furt</w>
schwe dischn</w>
schwar zen</w>
schrö t
schrei ber</w>
schick sal</w>
schan ze</w>
schaf tn</w>
sch all
san ti
sa r</w>
s c</w>
s be
s /
rö tt
ru per
restau ran
ren aissan
rei ter
regi erung
regel n</w>
reg gio</w>
re ff
rat e</w>
ran ge</w>
r t</w>
r ho
pu er
puer to</w>
prä gte</w>
proje kte</w>
pro blem</w>
prin zip</w>
prei se</w>
pre stel</w>
poli zei</w>
pol n
po i
plä tze</w>
plan eten</w>
pi o</w>
pi e
pflan zen</w>
pflan zen
pfaf fen
pet er-
pe dro</w>
p n</w>
p enz
or gel</w>
or f</w>
on ne</w>
olo gen</w>
offizi ellen</w>
ober e</w>
ob kiazung</w>
o he</w>
not wen
nord westn</w>
ni x</w>
ne bst</w>
n t
n d
münchen s</w>
mu ß</w>
mon tag</w>
mon roe</w>
mo ser</w>
mo i
mo a
mit t</w>
mit m</w>
midd lo
mi en</w>
met rop
men schen
meda i
mau er</w>
mathe mati
mat isse</w>
maschin en</w>
mark graf</w>
mari e-
mar ino</w>
mal erei</w>
mal ay
m bach</w>
lu sti
lo ssn</w>
lo he</w>
ll on</w>
lin ke</w>
lau b
landes kunde</w>
lan de</w>
l ück
l é
l utz</w>
l u</w>
l eng
kyrilli schen</w>
kultur en</w>
kubik zoll</w>
kua z</w>
ku lin
kt a</w>
kran k
komm ando
kom pa
koloni al
koa sa</w>
ko ane</w>
kl ein</w>
kin st
kin d
ki stan</w>
kar din
kape j</w>
k simi
joarhun dat</w>
jen seits</w>
is o
in zwischen</w>
in gebor
in d</w>
imp eri
ihre s</w>
i kon
häu sern</w>
hä t
hoch stift</w>
ho tel</w>
herr sch
herr mann</w>
hau enstein</w>
handl ungen</w>
ha slo
größ eren</w>
gro fan
gro f
gn utzt</w>
giu seppe</w>
gior gio</w>
gher t</w>
geschicht lichen</w>
ger n
geor ges</w>
geograf ische</w>
gebil det</w>
ge weiht</w>
ge trei
gan z
gan ga</w>
g is
g ger</w>
g ein
fu ße</w>
freu d</w>
fre un
franc is
fra un
fo st</w>
fl ur
finan z
fig uren</w>
ff er</w>
ferti g
feli ce</w>
fe an
fe -
face book</w>
fa sst</w>
fa ksimi
f lexi
f ler</w>
ex empl
evangeli sch-
europa straße</w>
er heb
entwickl ungs
entfern ung</w>
enn amen</w>
ency clo
en des</w>
ek do
eis hock
ein zugsgebiet</w>
ein fach</w>
e hmen</w>
e he</w>
e gi
dv d</w>
drei eck</w>
do wn
do mois</w>
distribu tion</w>
dir k</w>
di vision</w>
deutsch land
deutsch -
der mann</w>
de sign</w>
de a
d ut
cre mona</w>
co des</w>
châte au
chti gkeit</w>
christo ph
che mi
ch el
cam p
ca sa</w>
c ar</w>
bü ch
budd h
bu da
bu chen
bru ada</w>
brigi tte</w>
branden burg</w>
boh hof</w>
bo r</w>
bo gen</w>
bin dung</w>
bfin dd</w>
ber ges</w>
ben z</w>
beiträ gen</w>
beispu isweis</w>
be sser</w>
be kaun
basi ert</w>
ban k
ba gn
aus schu
augu stin</w>
auf stand</w>
auf gaben</w>
at ische</w>
aspe kte</w>
archi viert</w>
ar tn</w>
ar te
ar ei</w>
ant on
an ger</w>
an ekdo
an ato
amazon as</w>
am per
am on
am en
alp es</w>
ali st</w>
ai r</w>
ag d</w>
afrikan ischen</w>
af ro
ador no</w>
ad visory</w>
ad o</w>
ab thei
ab ru
ab ra
a be
9- 3</w>
9 9-
5 7-
5 0-
4 2
3-40 6-
28 .
25 /i</w>
2 1-
191 7</w>
190 7</w>
189 5</w>
188 9</w>
188 7</w>
186 5</w>
185 7</w>
185 6</w>
184 5</w>
184 0</w>
183 6</w>
180 6</w>
10 9</w>
10 7</w>
1 1-
0- 8
0 ′</w>
0 3</w>
- mo
über nahm</w>
über blick</w>
í n</w>
äthi opien</w>
äm ter</w>
ägypt ischen</w>
zu letzt</w>
zo in</w>
zi t
zeugn isse</w>
zeu g
zei g</w>
zehn ten</w>
zehn te</w>
x i</w>
wörter n</w>
wur f</w>
wol fra
wo ch
wirtschaft lichen</w>
wies en
wi el
westfal en</w>
wer bung</w>
we b</w>
wan g</w>
wa gn
w ün
w sky</w>
w m</w>
vort ra
vorsitz ender</w>
vorla gein
vorlagein fobox</w>
voll ständige</w>
voa bei</w>
vi tt
veröffentlich ungen</w>
verhäl tnis</w>
verban des</w>
vawoitungs gmoa
vawoitungsgmoa schoft</w>
va öffent
va effent
v re</w>
v ea
urugua y</w>
ursprün glichen</w>
unterneh mens
ung s</w>
um gangs
u sch
u e
u do</w>
tä glich</w>
tur n
tu x</w>
tri fft</w>
ton nen</w>
ti v</w>
ti l
ter min
ten ne
tatsäch lich</w>
ta gs</w>
t rop
t rat
t lichen</w>
t .
stu dien
strei f
strat e
sti li
stei ger</w>
stech nik</w>
ste ven</w>
ste ckt</w>
stadt -</w>
staats ministerium</w>
sta und
st und</w>
st s</w>
st rand</w>
st one</w>
st l</w>
st engan</w>
st all
spä da</w>
sp ann
sowjet union</w>
sor ge</w>
so tz</w>
so mm
so gt</w>
siedl ungen</w>
sep p</w>
sel ku
sei tn
sei l</w>
se mb
schwar zen
schrif ts
schri tt</w>
schrei ben</w>
schni tz
schna bel
schmer zen
schi ld</w>
schau spiel</w>
sch ran
sch nu
sch no
sch mitt</w>
saphi r</w>
sam u
sa vo
s ão</w>
s hofen</w>
s brunn</w>
rop a</w>
ron e</w>
ro w
ro del
ro ch
ri va</w>
ri g</w>
restau ri
reich en
region ale</w>
re prin
re d</w>
re cor
rai ff
ra gt</w>
prä si
pro mo
pri x</w>
prei sträger</w>
pre ss
portugi esische</w>
po ss'n</w>
po co
poco phone</w>
plän e</w>
pi er</w>
pd f</w>
parti tur</w>
p seu
or i</w>
or g</w>
om i</w>
ol ym
odysse us</w>
ober au
o ut
o pfer</w>
o o</w>
o ci
nörd liche</w>
nutz t</w>
ni us</w>
neu- ulm</w>
neu f
ne ck</w>
ne bn</w>
ne b
nation ali
na z
na t</w>
n ö
n r
n on</w>
mäß i
män ner</w>
mund art
mozar ts</w>
mon um
mo hr</w>
mitglie dern</w>
mindest ens</w>
min der
milli on</w>
mi lan
mi et
mi a</w>
met eor
mel o
meist ns</w>
medi a</w>
materi alien</w>
maschin en
marx ismus</w>
mar ken</w>
mana ger</w>
m ori
m eri
lich t
li zenz</w>
li ve
li tz</w>
les 'n</w>
leit faden</w>
le ch</w>
land wiat
la ger
la ch
la -
kon fu
komment ar</w>
kenn ung</w>
kea t</w>
kauf te</w>
kathe dr
kanz ler</w>
ka pu
k einen</w>
jü disches</w>
jä ger</w>
jose f
jetz t'n</w>
jes u
jahrhunder t
inte gration</w>
ins gso
in v</w>
in geni
in es</w>
in e
i stik</w>
i r</w>
i dio
i am</w>
i ah</w>
hör t</w>
hä h</w>
hy dro
hoch schulen</w>
hoa sst</w>
ho ts</w>
ho n</w>
hi mm
hi elten</w>
her ze
hand werk</w>
haf n</w>
ha st</w>
ha a
h ungs
gä ste</w>
grou ßn</w>
gol f</w>
go d</w>
gn d</w>
gmo ant</w>
gmo af
gle bt</w>
gl än
gl er
gia como</w>
gewä sser</w>
gerä te</w>
ger in</w>
geograph ische</w>
gen utzt</w>
gen d
gen aus
genaus o</w>
gebir gs
ge sehen</w>
ge bu
gat tin</w>
gan da</w>
g' spü
g schri
g ate</w>
fürst entum</w>
fuaß bo
for dert</w>
flor enz</w>
flie ß
fjor ds</w>
fi tz</w>
fi kation</w>
fi gu
fi ge</w>
feu er</w>
fakul tät</w>
fahr zeuge</w>
f ell
expedi tion</w>
europä ischer</w>
ethn olo
et liche</w>
erzieh ung</w>
erlä ut
erlan ga</w>
erklär ung</w>
ergeb nis</w>
er weise</w>
er tn</w>
er foi
entschei dung</w>
ent wäss
ener gie</w>
eiropä ische</w>
eh ma</w>
ear eicht</w>
ea l</w>
e us</w>
e ur</w>
e pis
e her</w>
e e</w>
e de
e cht</w>
e c</w>
e ad
dun kel
do mid</w>
do ktor</w>
din g
diet z</w>
di ffer
der -
del l</w>
dat ei</w>
d um</w>
couplet s</w>
couple t</w>
con ta
comput er</w>
comm un
clu b</w>
ck i</w>
cht um</w>
chin esische</w>
chen land</w>
ce te</w>
carl theater</w>
ca sal
c in</w>
c en</w>
c ci</w>
bün dnis</w>
bü cher
bur gs</w>
buddh ismus</w>
bs ua
brow ser</w>
bro cht</w>
br ingen</w>
bo m
blei ben</w>
bin nen
bibliograph isches</w>
bezieh ungen</w>
betri ab
bestands aufnahme</w>
ben no</w>
bei spiele</w>
beetho ven</w>
be y</w>
be sie
be kenn
bayer n-
baro cke</w>
bar keit</w>
bahn linie</w>
ba by
ausstell ungen</w>
ausge zeichnet</w>
aund an</w>
au st
au gsch
at h
arti kl</w>
ar ungs
apf el
antoni us</w>
alba cete</w>
abkür zung</w>
ab s</w>
ab geordn
a ist</w>
a ht</w>
a horn</w>
978-3-4 5
9 4-
8 7</w>
3 00
201 6.</w>
20 .000</w>
19 19
189 9</w>
189 3</w>
183 1</w>
1 10</w>
über setzungen</w>
ø st
ökon om
én é
å r
är zte</w>
ägypt ische</w>
ä u</w>
ß ner</w>
zua sam
zu sätzlich</w>
zie gel
zentru ms</w>
zent ren</w>
zel n</w>
ze jn</w>
zam pa</w>
za k</w>
z á
z ona</w>
z heng</w>
y o</w>
y n</w>
y n
x er</w>
wol lte</w>
wohn en</w>
win den</w>
wil son</w>
wies ent</w>
wi g-
wende lin</w>
wen dung</w>
wen de</w>
welt geschichte</w>
wei dan</w>
web präsenz</w>
war ns</w>
war at</w>
wander ung</w>
wahl en</w>
w hi
vre a</w>
vorhan den</w>
vor gän
vo gel</w>
vin c
victori a</w>
vi ta</w>
verstän dnis</w>
verke hr
verfü gung</w>
verbin dungen</w>
ver le
ver k
ver ben</w>
vazeichn is</w>
vaschie dane</w>
varian ten</w>
vabin dt</w>
va s
va -
v ü
us- amerikanischen</w>
urkun dn</w>
urkun den</w>
unter teilt</w>
unter en</w>
untasti tzt</w>
ungs weise</w>
un o</w>
umfan grei
ua h
u sal
usal em</w>
u hrzei
uhrzei ger
uhrzeiger sinn</w>
tz bach</w>
tu n</w>
tt el
tsche cho
tro cken
tradi tions
touri s
tolsto i</w>
to skan
ther ese</w>
the men</w>
temp el</w>
te st</w>
tan z
tal ent</w>
tagebü cher</w>
ta ge
t v</w>
t ungen</w>
t hal
sü dafrika</w>
sö hne</w>
syste m
symbo l</w>
studi erte</w>
stro ß
stif ts
sti l
ste s
ste ja</w>
stan dn</w>
staat liche</w>
sta gs
ssyste m</w>
ssi on
sprä siden
spe yer</w>
sp ö</w>
sozial versicher
soft war
sie del</w>
si i
sen de
seleu ki
selbst zeugnissen</w>
sei l
se di
se a</w>
schwe stern</w>
schw ung</w>
schreib weis</w>
schott ische</w>
schne e</w>
schles wig-
schle sien</w>
sch er-
scher- rie
sch an</w>
sch all</w>
santi ago</w>
sa gen
sa c
s ische</w>
s in</w>
rött bach</w>
rö mer</w>
rä ge</w>
rund schau</w>
ru pp
ru he</w>
rothen buch</w>
rosen berg</w>
roman ische</w>
ro g</w>
ri co</w>
ri chtig</w>
ri chs</w>
rem isch-
religiö se</w>
recht n</w>
re se
re du
re d
ra ssi
r é
r ation
que j
que ch
pu cc
prä sent
proje kt
progra mmen</w>
portu gal</w>
pol t</w>
plä tz</w>
plan t</w>
pietsmi et</w>
person a</w>
peason a</w>
pe dia</w>
pau lus</w>
pat ag
partei en</w>
para dies</w>
palästin ens
pa ket
pa der
ost- west-
orts rand</w>
orthodo xe</w>
ort en
or ff</w>
oni e</w>
on we
on kel</w>
on g
ol ang</w>
of fi
obje kt</w>
ober österreich</w>
ober bayern</w>
oani ge</w>
oan zige</w>
o ss
o h</w>
näch sten</w>
näch st</w>
nu o
nobel preis</w>
nie dri
neu siedl</w>
natur schutzgebiet</w>
nat h</w>
nah ma</w>
na y</w>
na va
n dn</w>
n ati
mus li
mu i</w>
mu ada
ms dorf</w>
mor sbach</w>
mor ali
mongol ei</w>
mo to
mitglie d
minu ten</w>
min da
mi ß
mi st</w>
mi ll
met z</w>
mer ken
men ge</w>
mehr heit</w>
me so
me ck
mau ri
mat t</w>
mat ri
mart in
margar et
mar sch</w>
man s</w>
main zer</w>
mai os</w>
ma ze
ma ins</w>
luther ische</w>
lu it
luit pol
lu gan
lond schoft</w>
log ische</w>
lo t
li t
li smus</w>
li gen
li erte</w>
li ert</w>
let ter</w>
lern en</w>
leb te</w>
la un
la di
la brunn</w>
l er-
kü sten
kö nn</w>
kur ort</w>
kun dliche</w>
kulture llen</w>
kro pf
kri tisch</w>
kreuz wertheim</w>
konze pte</w>
koch buch</w>
klingen berg</w>
klei st</w>
kla ve</w>
kir chn</w>
kiach a</w>
ki t</w>
ki el</w>
katz berger</w>
kan adi
kaffe e</w>
k f
kf z-
k ad
jose fin
jor ge</w>
jer usalem</w>
jahr taus
jahr -
ja gd
j s</w>
j h</w>
isra eli
inter ess
ins l
inhalts angabe</w>
indi schen</w>
in zwischn</w>
illi nois</w>
ihr a</w>
i vrea</w>
i ro
hy per
hou ch
horizon t</w>
hil des
hil de</w>
high way</w>
herze go
herzego win
her zen</w>
her b
he m</w>
he ber
haus hoite</w>
haus er</w>
har ra
har e</w>
hand wörterbuch</w>
ha s
ha in</w>
ha -
h z</w>
gut enberg</w>
gur un
gunzen bach</w>
gud bran
gudbran ds
gs etz</w>
gro a
grie chenland</w>
griach ischa</w>
gri ff
gran de</w>
graf n</w>
gon g</w>
gmoa vabindungs
gkei tn</w>
gewi cht</w>
geri chte</w>
ger ne</w>
geno ssen</w>
gei stes
ge sucht</w>
ge spielt</w>
ge mann</w>
gat scher-rie
ga un
g äu
führ ungen</w>
för dert</w>
fä llen</w>
fun ktionen</w>
fuaß boi
früh geschichte</w>
frü he</w>
fränk ischn</w>
franzis ka</w>
franz esische</w>
fran ç
frag ment</w>
foto s</w>
flü cht
flug hofn</w>
fir men</w>
fin ger</w>
filial kirche</w>
fi ar
fel den</w>
fe e</w>
famij nam</w>
fa kten</w>
f j
f am
eul en
erinn ert</w>
eri ka</w>
er o</w>
ent ro
ent ri
en und</w>
en en
elem ent
el er</w>
eigen schaften</w>
eg g</w>
eawähn t</w>
e mma</w>
e lin</w>
e ana</w>
durch quert</w>
dr än
dorf es</w>
dor a</w>
do g
die sel</w>
dicht n</w>
di vi
di us</w>
di l
di gen</w>
deut ung</w>
den z</w>
de z</w>
de la
de bü
de bat
da fia</w>
d å</w>
d la
d hi</w>
corpor ation</w>
con rad</w>
con ne
cl aus</w>
châte au</w>
christ i</w>
chen s</w>
che ster</w>
charak ter</w>
ch ur
ch tete</w>
cent er</w>
caf é</w>
c um</w>
c q</w>
c ort
bunde samt</w>
bun t
bun des</w>
buid d</w>
buch gesellschaft</w>
bsitz t</w>
brä u</w>
brä u
brun n
brief wechsel</w>
brett ner</w>
bre men</w>
bo gen
blan c</w>
birn baum</w>
biograph isches</w>
bil dete</w>
bi tte</w>
bezi ak
bevölkerungs dichte</w>
bevejkar ung</w>
betriab ssy
berühm ten</w>
berücksichti gung</w>
beru f</w>
beru f
bergam o</w>
berg und</w>
ber na
ber ga</w>
ber -
bedro ht</w>
be zug</w>
be wu
be sser
be ach</w>
bayer isch</w>
basi li
bar ung</w>
bar t</w>
ba den-
b stäid</w>
b lö
aus zug</w>
aus zeichnung</w>
aus stattung</w>
aus nahme</w>
aus einander
auf tritt</w>
auf g'
au hausen</w>
ati us</w>
at 'n</w>
as co</w>
ar kt
anekdo ten</w>
ander s</w>
and ro</w>
an ischn</w>
ameri kas</w>
am at
alpha bet
alo gie</w>
al d
ag no
af n</w>
af grund</w>
adol ph</w>
ad mi
a –
a y</w>
a o</w>
a dam</w>
a ber
77 77
6 4
6 1-
5 9</w>
5 5-
4 2-
316 6-
3 6-
3 10
201 4.</w>
194 2</w>
188 8</w>
188 2</w>
185 5</w>
185 4</w>
184 7</w>
180 2</w>
180 1</w>
14 -
12 6</w>
1 1.
1 1-0
1 .000</w>
00 0
0 1</w>
. m
- de
, 3</w>
über no
ø r
öv p</w>
å b
äl testen</w>
ä j
ß 'n</w>
zz i</w>
zwe g</w>
zu sätz
zu stand</w>
zo o</w>
zimmer mann</w>
zie hen</w>
zi tan
zi mmer</w>
zi eh
zi agt</w>
zeu gen</w>
zeit alter</w>
z ln</w>
z inger</w>
z -</w>
x n</w>
wur dn</w>
wor k</w>
wolfra m</w>
wo hin</w>
wien -
wichti ga</w>
werk statt</w>
weiter s</w>
wei le</w>
wei dar
wei d
we u</w>
we stern</w>
we s
we h</w>
wal zer</w>
wa hi
wahi li</w>
wa cht</w>
w- par
w-par ser-
w-parser- out
w-parser-out pu
w-parser-outpu t</w>
vorla ge
vor her</w>
voll en</w>
volk spartei</w>
voiks mund</w>
vo kale</w>
vikt uali
viktuali en
viktualien markt</w>
viech tach</w>
verlags anstalt</w>
verfass ungs
veranstalt ungen</w>
ver sammlung</w>
ver mer
ver län
ver halten</w>
ver di</w>
vawoitungs sitz</w>
vaschie dene</w>
va t</w>
v ischen</w>
unterschei det</w>
unter hält</w>
unter hal
unt af
ung ar
ung -
un es
unes co-
un end
ua l</w>
u k</w>
u b
tz ingen</w>
ts hausen</w>
tragö die</w>
ti tus</w>
ti mes</w>
ti erten</w>
ti er</w>
ter n
tenne ssee</w>
ten der</w>
ten den</w>
techn ischen</w>
tan san
tan e</w>
ta s
t é</w>
t ren
t mann</w>
t is
süd west
sä ä</w>
sy ra
sy mp
sul z
sub stan
stü m
ständi gen</w>
stu hl</w>
stu dio
stri e</w>
stre u</w>
stre et</w>
stell ungen</w>
stein berg</w>
ste mp
ste hn</w>
starn berger</w>
star gate</w>
stam m</w>
staf fel</w>
st ung</w>
st o</w>
ssi sch</w>
ss andro</w>
spä teren</w>
spro chi
spess art
spe ci
span ische</w>
sp unkt</w>
sp rü
sp el
sowjet ischen</w>
sonn tag</w>
son s</w>
sommer au</w>
soi do
so gnenn
so gn</w>
so ber
slowen ische</w>
slaw ischen</w>
skri t</w>
ski zzen</w>
sing le</w>
sim on</w>
sil ber</w>
siem ens</w>
siedl unga</w>
sied ler</w>
si ons
sh i</w>
ser vi
selku p
sekre tär</w>
seit m</w>
sei dl</w>
se er</w>
schön sten</w>
schö ne</w>
schwo az
schwer in</w>
schwei za</w>
schul d</w>
schrif tn</w>
schreib weisn</w>
schnee berg</w>
schlu ß</w>
schleswig- holstein</w>
schie d</w>
schau g</w>
sch mu
sch ke</w>
sch ach</w>
sat b</w>
san skrit</w>
samu el</w>
samm lungen</w>
sa gte</w>
s å
s han
s burger</w>
ru di</w>
ro ger</w>
rh ô
rezen sion</w>
reng schburg</w>
renaissan ce</w>
regel mäßig</w>
recor ds</w>
re vi
re gent
rassi smus</w>
ra u</w>
quea t</w>
py rus</w>
pucc ini</w>
präsiden ten</w>
proze sse</w>
porträ ts</w>
port o</w>
poly nes
politi k
pi oni
pfarr er</w>
per u</w>
peg nitz</w>
partner schaften</w>
par alle
pa ss</w>
pa p
pa l</w>
p lei
ost fil
ori ent
or s</w>
or dens</w>
oni ca</w>
on es</w>
on dan</w>
on dam</w>
olo g</w>
ok zitan
oipha bet</w>
offizi ere</w>
ober pfäl
ob g
o wa
o sta
nörd licher</w>
not geld</w>
nord westli</w>
nomans gem
nochfoi ga</w>
noch dem</w>
noad -
no men</w>
nie mand</w>
nie der</w>
ni etz
ner /
nenn d</w>
nem fluss</w>
nei l</w>
ne o
natur schutz
national soziali
nation en</w>
na ab</w>
n ul
n el
n ation</w>
mög lich
my ster
mua ß</w>
mua ss</w>
mo sam
mo os</w>
mm d</w>
mittelalter liche</w>
mitt ler
mit arbeiter</w>
misch ung</w>
min g</w>
min a</w>
mi o</w>
met al</w>
mechani k</w>
me ga
mar ok
mar ki
mar ina</w>
mar beit</w>
magn et
ma ya</w>
ma ssen
ma sch
ma dri
m berg</w>
m am
län g
ly n</w>
lu m
lot hr
lohen grin</w>
lo b</w>
lin k</w>
lichkei tn</w>
li u</w>
li tt
li sa</w>
li eren</w>
lei m</w>
lehr er</w>
le e</w>
le d
la und
ku f
kri sti
kon go
komponi sten</w>
komp ati
kommuni stische</w>
ko so
ko pier
ko artn</w>
klu ge</w>
klo an
klini kum</w>
kli ma
klet ter
kin da
ki m
ken ig</w>
kem a</w>
kardin al
kar to
kant ons</w>
kan oi</w>
kais erin</w>
k p
k le</w>
journa list</w>
je w</w>
je da</w>
jac ques</w>
ja gd</w>
j uni
j er</w>
ira k</w>
ir o</w>
ir land</w>
inter disziplin
in g-
i /
hö her
hän gt</w>
hoa ß
ho w</w>
ho mer</w>
ho i</w>
histori ker</w>
histor isch</w>
herstell er</w>
hel ge</w>
heili gen
hei ls
he d
haus e</w>
haupt sitz</w>
hart mann</w>
ha hnen
h ung
h te</w>
grö n
grou ß
grofan au</w>
grof schoft</w>
goet hes</w>
goet he
gn ü
gn is</w>
gi ge</w>
gi bd</w>
ghan a</w>
geschle cht</w>
geschi chte
gesch mack</w>
ger ade</w>
geord net</w>
gebi eten</w>
gebai de</w>
geb lich</w>
ge scho
ge macht</w>
gar in</w>
g ür
g lia
g hoaßn</w>
g hi
g ge</w>
fähi gkeit</w>
fu chs
fria hare</w>
fri sch</w>
fri ah
frei herr</w>
francis co</w>
fra ktionen</w>
fra ktiona</w>
fp ö</w>
for mel</w>
for man
fol gten</w>
flia ssd</w>
fle chn</w>
fl ö
fizi erung</w>
fisch er
fin ster
fie sta</w>
fia hn</w>
fi gua</w>
fi at</w>
feu cht
fest land</w>
fehl en</w>
fa ssa
fa s
fa ktor</w>
f tig</w>
f ische</w>
f et
exi stian</w>
ett ingen</w>
ethn ische</w>
et ta</w>
et ien</w>
erfol gt</w>
er war
er mög
er hielten</w>
er gibt</w>
entro pie</w>
ent halten</w>
enn s</w>
engli schn</w>
en ist</w>
em er</w>
el tern</w>
el friede</w>
ein heim
ei ro</w>
egy pt
ed ward</w>
e schenbach</w>
e at
dän ische</w>
dun kl
du strie</w>
dri ttn</w>
dra w
dou glas</w>
do at</w>
diö zes
distri kte</w>
dies m</w>
di sch-
di ri
di gn</w>
des hoib</w>
de sch</w>
de lla</w>
de gn
de ckt</w>
dau er
dat n
dar auf
dan te</w>
d ün
d ung
con seil</w>
co un
cle mens</w>
ci u
chti ge</w>
can al</w>
ca pri
c. h</w>
c es</w>
c ab
bäuer les</w>
bus linien</w>
burg ischen</w>
burg ische</w>
bundes regierung</w>
bundes autobahn</w>
buch verlag</w>
buag amoasta</w>
brün n</w>
brück en
bra ch</w>
br ent
bo b</w>
bla ck
bir nen
bezir ks</w>
bet reff
ber ger
bekann testen</w>
befe hl</w>
bearbei tete</w>
be wohna</w>
be vö
be setz
be schluss</w>
be haup
be cken</w>
bay rischen</w>
bauf lä
bau en</w>
bau denkmäler</w>
basi s
bai rische</w>
b ungen</w>
b schä
b rich</w>
b lin
b le</w>
aus sterben</w>
aus n</w>
aus g</w>
aufgelö st</w>
auf s</w>
auf en</w>
au a</w>
ation a</w>
at ischen</w>
astrono m
aster oid</w>
ara bi
ar o
ar m</w>
app le</w>
aphor ismen</w>
ange bot</w>
anfän ge</w>
an tn</w>
an schließend</w>
an de</w>
am tes</w>
ale ssandro</w>
ak te</w>
air port</w>
af m</w>
administr ativ</w>
ab u</w>
ab stand</w>
a qu
a ktion</w>
a cker
7 8-
6- 9</w>
40 00</w>
30 ′</w>
30 .000</w>
3-8 5
3-63 1-
3- 70
3 50</w>
3 4-
3 .000</w>
198 0
189 4</w>
187 9</w>
186 4</w>
186 3</w>
184 3</w>
17 96</w>
14 5</w>
1 koordinaten</w>
.m w-parser-output</w>
. 4
- nr</w>
- museum</w>
, 4</w>
über sicht</w>
öffent liche</w>
öff nung</w>
é m</w>
är er</w>
zü rich
zürich /
zwe y</w>
zu meist</w>
zi a</w>
zeit geschichte</w>
ze pp
zd f</w>
zd b-
zdb- id</w>
zamm fluss</w>
zam ma</w>
z wies
yo ung</w>
y am
währ ung</w>
wä l
wun siedel</w>
wo o
wo chen</w>
wirt h</w>
wir ts
wiener ischen</w>
wichti g</w>
wi tsch</w>
wet ter
wel ter
weis heit</w>
wei l
wei dane</w>
we x
we an
w i</w>
vor stellung</w>
vor läu
volks mund</w>
volk sthe
vo g
vir tu
violin en</w>
vier tel
vi us</w>
verschie dener</w>
verlags buchhandlung</w>
verarbei tung</w>
ver zwei
ver nicht
ver legt</w>
ver gnü
ver ehr
vene zu
vam ea
vab undn</w>
va r</w>
va gab
va ein</w>
v in</w>
v ati
ur sachen</w>
ur gie</w>
unterneh mens</w>
unob hängi
un ten</w>
ull stein</w>
u d</w>
u 1
typ isch</w>
ty ran
tro gt</w>
tro ck
traun stein</w>
tor y</w>
toil ette</w>
to mol
ti ons</w>
ti eren</w>
theat ers</w>
the orien</w>
th urnau</w>
teu fels
territ ori
tenn is
ten dorf</w>
ta x
ta k
t tel</w>
t ologie</w>
t is</w>
t ein</w>
t am
sächs ischen</w>
stöll ung</w>
stäi ung</w>
strau ß</w>
stor e</w>
stir bt</w>
sti lle</w>
ster reich
stein s</w>
sta del
st el
ssen en</w>
ss ei
span isch</w>
sp ur</w>
sp reis</w>
sozial demokratie</w>
soll ten</w>
sol i</w>
sokrat es</w>
soi z
soci al</w>
so p
so gn
so gar</w>
so g</w>
slowen ischen</w>
skul pt
sk ern</w>
sign aturen</w>
si d-
sej bst
sehens wert</w>
se ß
se h
schöpf ung</w>
schä fer</w>
schu h</w>
schreib weise</w>
schlia ß
schen k
schau spü
sch te</w>
sch s</w>
sch rau
sch ner</w>
sau er
sar di
sa x
sa hara</w>
s- universität</w>
s wahili</w>
s ut
s mart
s ischn</w>
s ischen</w>
rück kehr</w>
ru bens</w>
roth neusiedl</w>
ro ss
ro sa
rin a</w>
ri ta</w>
ri sø
ri eth</w>
rhein land-
reu t</w>
residen z
rem ische</w>
religions geschichte</w>
rei f</w>
region alen</w>
re ma</w>
re lie
re g</w>
re -
ran g
ran d
ra cht</w>
ra ben
quech ua</w>
quar tu
pä p
pt ole
ptole maios</w>
produzi ert</w>
produ kt</w>
pro phe
prat o</w>
pra xis</w>
pots dam</w>
po st</w>
planungs region</w>
pi per</w>
pho to
ph en</w>
pfor rei</w>
pflan z
pf e</w>
pet ro
persön liche</w>
per ni
pau ly</w>
part et
pal ä
pal er
pa pier
pa k</w>
pa gan
pa ck
p lin</w>
p i</w>
ou te</w>
ost see</w>
os car</w>
orts rond</w>
orts name</w>
or gel
op atra</w>
on al</w>
ol as</w>
okto ber
oid stod</w>
offizi e
o th
o te</w>
o is
o fen</w>
o cht</w>
nymphen burg</w>
noad westli</w>
nieder bayern</w>
ni em
ni ch
neun kirchen</w>
neu auflage</w>
nei en</w>
ne ss</w>
ne pt
nau man</w>
natür liche</w>
napole on</w>
nach ruf</w>
nach ge
n ut
n ten</w>
mühlhias l</w>
mön ch</w>
musikali sch</w>
musi ka</w>
mosam bik</w>
mon o
mon ats
mit gli
minut n</w>
min dung</w>
milli on
mi e
ment s</w>
meist ens</w>
mehr ing</w>
mehr are</w>
mediat hek
me z
me glich</w>
me d</w>
me chan
mat th
marc el</w>
mar ía</w>
mar s
mar ke</w>
mann s
magdal ena</w>
ma ca
lu ise</w>
lo sen</w>
ll o</w>
lil le
lie ßen</w>
lia cht
li ss
li schn</w>
len in</w>
leiden schaft</w>
lei b</w>
le ser</w>
le genden</w>
le der</w>
le d</w>
landwirtschaft lich</w>
land tag</w>
land kreise</w>
la ssung</w>
la bi
l lo
l an</w>
königin -
krimin al
krie ge</w>
kos mos</w>
kolle ga
ko w</w>
ko oper
kle opatra</w>
kla r</w>
kin nan</w>
ki em</w>
ki -
ken ig
kem p
kel heim</w>
ke ssel</w>
ke hr
ke an</w>
katholi schn</w>
kathedr ale</w>
katal onien</w>
kat rin</w>
kan ten</w>
kan t</w>
kan al
kal i</w>
ka sus</w>
ka sten</w>
k html</w>
k es</w>
jugosla wien</w>
josefin e</w>
jor dan
johan na</w>
jo hn
jo h</w>
jo e</w>
jer sey</w>
japan ischn</w>
ja go</w>
j utta</w>
iu lius</w>
is pu
inszeni erung</w>
insgso mt</w>
insel gruppe</w>
inn ere</w>
ingebor g</w>
in fan
infan teri
i z
i gn
hü gel
höch städt</w>
hö sbach</w>
hät tat</w>
ht m
hol ger</w>
hoff nung</w>
ho lo
hm w</w>
hier bei</w>
heu er</w>
her n</w>
her ine</w>
hel labrunn</w>
heili gn</w>
he l</w>
haslo ch</w>
har t-
han sa</w>
ham mer
haf f
ha ven</w>
ha dern</w>
ha d</w>
h är
h ul
h aller
h ad
gö tz</w>
gä ste
guat em
gua de</w>
grä ber</w>
groß stadt</w>
groß ostheim</w>
grin dd</w>
greß are</w>
gra ph</w>
gra b</w>
gr en
go s</w>
gna den
glei t</w>
gla d
gl ö
gie ßen</w>
gestal tet</w>
ger tru
ger l</w>
ger ald</w>
geni e</w>
gehei me</w>
gegrün deten</w>
gebro chen</w>
ge währ
ge wählt</w>
ge od
ge fan
ge bn</w>
ge -
gatscher-rie dl</w>
gan e</w>
g seng</w>
g ne-
g foin</w>
g auer</w>
fußball spieler</w>
fun ktion
frequ enz</w>
frei tag</w>
fran ce</w>
fort ge
forst haus</w>
fo ahra</w>
flü ssen</w>
flan dern</w>
fl am
fia 'n</w>
fi cker</w>
fest ungs
fest spiele</w>
fern er</w>
feld herr</w>
fejd herr</w>
fei a
fe- schrift</w>
fe h
fassa de</w>
far ben
fam ü
faksimi le</w>
f l</w>
f fa
etym ologie</w>
et hi
essa y</w>
ern st
erfol g
er berg</w>
enz a</w>
entwick ler</w>
entwick la</w>
enti erte</w>
entfe ant</w>
endgül tig</w>
en -</w>
ein g
eign a</w>
eigen er</w>
ei d</w>
ea streckt</w>
e sisch</w>
e cke</w>
e am
dra matische</w>
dr unta</w>
dr in</w>
down lo
dor fer
dokument ar
dn a</w>
dl n</w>
diver se</w>
dies el
dien te</w>
di alo
det le
des weng</w>
den den</w>
dela ware</w>
deit schen</w>
deggen dorf</w>
de st</w>
de rum</w>
de pp</w>
de kan
dan k</w>
damali ge</w>
da duach</w>
d- land</w>
d lin
d c
cour t</w>
corne lia</w>
com uni
colum bia</w>
code point</w>
co sta</w>
co s</w>
ck te</w>
chri sten</w>
chi ca
chica go</w>
char lie</w>
cent ral</w>
car t
car los</w>
cal ab
ca p
c du</w>
c ation</w>
bä r</w>
bunt bar
buda pest</w>
bu on
bu en
brü che</w>
brit ish</w>
brit ischn</w>
brie f</w>
bre s
bor go</w>
bo t
bo d</w>
bo ck</w>
blo ß</w>
bin o</w>
bild dokumenten</w>
bezirk samt</w>
bert hold</w>
berg man</w>
berchtesga dener</w>
ben ö
behör de</w>
bede it</w>
be vor</w>
be lo
be kam</w>
be am
bay er</w>
bau n</w>
bau ern</w>
bau an
ban gla
bach es</w>
ba sk
b tr
b oni
b lut
azte ken</w>
autor oute</w>
aus gaben</w>
aus bau</w>
aus 'n</w>
auf zeichnungen</w>
auf gle
au st-agder</w>
at ung</w>
aserbaid schan</w>
ari sto
archite kt</w>
ar te</w>
ar in
ant es</w>
ang st</w>
anfan gs</w>
anato mie</w>
an grenz
an dn</w>
an bau
all tag</w>
all gä
ale ph</w>
al o</w>
ak su
ab wei
ab handlung</w>
a ss</w>
a qui
a quar
a pp</w>
a pol
a gi
a c</w>
a /
9 9
8 7
6 0-
3-77 0
3- 5</w>
3- 2</w>
25 00</w>
24 -
201 5.</w>
201 3.</w>
19 7</w>
186 9</w>
185 3</w>
185 2</w>
18 20</w>
177 7</w>
16 0</w>
15 30</w>
12 8</w>
11 11
10 1</w>
10 0-
1 18
1 11</w>
1 100
0- 7
, 9</w>
, 1</w>
š t
über wiegend</w>
über ra
é -
ästhet ik</w>
än dert</w>
ä her
zwo ag</w>
zon g</w>
zeit liche</w>
zeichn en</w>
ze jt</w>
zam m</w>
z. b</w>
z nächst</w>
x ylo
x ford</w>
wir t</w>
wil d</w>
wie derum</w>
wie darum</w>
wi adi
west fä
werk es</w>
wer tung</w>
welt krieges</w>
well en
wel ches</w>
wej d</w>
weiß -
weit gehend</w>
wei ta</w>
wechsel te</w>
we stern
war ds</w>
wach sen</w>
w ul
w ortes</w>
w amo
wamo or</w>
vorles ungen</w>
vor der
vor bild</w>
vo i</w>
vie wer</w>
vi ll
vi ii</w>
vi i</w>
veröffentlich ten</w>
verän dert</w>
versu cht</w>
verlei hung</w>
verkauf t</w>
verbindungs straße</w>
ver sehen</w>
ver n
ver gleich
ver de</w>
ver bre
ver bess
ver anstal
vawoit ung
vatre ta</w>
vat rog</w>
vall o</w>
va eini
ursprün gliche</w>
ur i</w>
untan ehmen</w>
untaf ränk
unta hoib</w>
ungsin stitu
ung arischen</w>
umstri ttn</w>
um welt</w>
um land</w>
um benannt</w>
ua t</w>
u x</w>
u t</w>
u k
u eber
u an</w>
türk ischen</w>
tz ent
tschech ischen</w>
ts un
trenn ung</w>
trans liter
toskan a</w>
to ten</w>
ti ges</w>
ther a
the k</w>
tex t-
ter in</w>
ter er</w>
teil neh
tansan ia</w>
ta ste</w>
ta gor
ta cher
t auf
szen en</w>
syra kus</w>
synon ym</w>
symb ole</w>
stö it</w>
stro m
strau bin
strahl ung</w>
str å
sto s</w>
stej ung</w>
stein zeit</w>
steiger wald</w>
stei gen</w>
stand s
stadt bezirk</w>
stad tzent
staats bahn</w>
sta undn</w>
sta b</w>
st ums</w>
st röm
st raum</w>
st ett
ssi ge</w>
spar k</w>
son ne</w>
sol che</w>
soci et
so und</w>
so goa</w>
smit h</w>
skri pte</w>
sk ol
sk o</w>
sk el
sin kt</w>
sig ni
siedl t</w>
sid liche</w>
sicher heit</w>
si mul
si cher</w>
si cha
sho sh
sh -
setz en</w>
ser l</w>
sen gs
sen dungen</w>
sel va</w>
se kun
se ktion</w>
se chste</w>
schä tzung</w>
schwi mm
schwest er</w>
schwar zach</w>
schreib weisen</w>
scho tt</w>
scho pf
schlo g</w>
schin gs
schi ller</w>
schaf fen</w>
sch tn
sch mel
sardi nien</w>
san t
sa ge</w>
sa cra
sacra ment
s orte</w>
s hof</w>
s he
s cu
s -</w>
rud ol
ru ssisch</w>
ru hi
roch us</w>
ro y</w>
ro tt</w>
ro tt
ro in</w>
rie sen
ri t</w>
ri char
ri c</w>
repor tagen</w>
religiö sen</w>
rei th</w>
rei en</w>
re s
re port</w>
re gn
re ge
re formen</w>
re chter</w>
re chte
re ch
re al</w>
rat s
ra kete</w>
r r
päp st
pu sch
produ ktions
pro ph
preuß ische</w>
pra kti
pica ss
pi r
phon et
philosoph ischen</w>
pfer de
pf licht</w>
patri ck</w>
pat en
pal az
pa w
ou ver
ostfil dern</w>
ort s</w>
orche ster
onli ne
olym pia
olden bourg</w>
oe sterreich
och sen
ob woi</w>
ob schnitt</w>
o it
o iso</w>
o .
nå ch'n</w>
nsda p</w>
nordo st
nord- süd-
nor we
nor i
noad westn</w>
nicol as</w>
ni ß</w>
ni v
ni t</w>
ni ger</w>
neu eren</w>
netz werk</w>
net work</w>
nenn en</w>
neck ar</w>
ne bel</w>
natua park</w>
nami k</w>
nah me
nachbar n</w>
nach weise</w>
na ss
na d</w>
n und</w>
müll er-
mühl dorf</w>
mör der</w>
mög lichkeit</w>
musi ker</w>
mus lim
mt v</w>
moti ve</w>
mona co</w>
mobi le</w>
mo tor</w>
mo li
mittler weile</w>
mittel meer</w>
mit ten</w>
ministeri ums</w>
min g
min .</w>
middlo ita</w>
middl an</w>
mid dn</w>
mich el</w>
mi chi
metrop ol
met amor
merk ung</w>
mer ce
mensch heit</w>
men i
men e</w>
mel de
mart ina</w>
mark et
mari lyn</w>
margar ete</w>
mann schaften</w>
main- spessart</w>
madri d</w>
ma y</w>
ma h
m ³</w>
m uth</w>
m aus</w>
m all
län gste</w>
län ger</w>
lux us</w>
lugan o</w>
ludwi gs</w>
lu m</w>
lu cia</w>
lon g
lon d</w>
lo hner</w>
lo hn
ll n</w>
literatur kritik</w>
lin kn</w>
lin k
liefer ant</w>
lie genden</w>
lie gende</w>
lichkei ts
lich sten</w>
lich em</w>
liber ale</w>
li on</w>
li o
li g</w>
li fe</w>
li b
ler in</w>
len a</w>
lemen tierung</w>
lei b
leh mann</w>
lebens geschichte</w>
le gte</w>
lau ringen</w>
landwirtschaft liche</w>
la ß</w>
la gun
la dy</w>
l ungs
l t
kü h
köni glich</w>
köl ner</w>
ku s
kt ua</w>
krü ppel</w>
krei z
kraft werk</w>
koso vo</w>
kontin u
konserv ative</w>
kon zer
kon sul</w>
kon g</w>
koi wamoor</w>
ko wski</w>
ko mit
klu sive</w>
klez mer</w>
kl es</w>
kinder -</w>
kin i
kiach n</w>
kenn a</w>
kat ja</w>
kat h</w>
kas erne</w>
karl heinz</w>
kann t</w>
kandi dat</w>
kamer un</w>
ka ja</w>
k olo
k is</w>
jünger e</w>
jur a</w>
juni or</w>
ju sti
ju rist</w>
jol esch</w>
jo arn</w>
je den</w>
jahr- feier</w>
j um
ispu ia</w>
inn eren</w>
industri elle</w>
indi gene</w>
in spe
in se
in dre</w>
i ii.</w>
i h</w>
i ber
i 'n</w>
hü gel</w>
hör stein</w>
hö llen
hym ne</w>
hy po
hun der
hu ber
hou d</w>
horn bach</w>
hon g
hol land</w>
hoch zeit</w>
ho tels</w>
ho s</w>
ho hl</w>
ho am</w>
hir sch
hi re</w>
hi o</w>
herausge ber</w>
her vor
her kunfts
her bst
hen ne
hen ger
hen den</w>
hel ga</w>
heili ger</w>
hei ß
hei gen
heigen brücken</w>
hei d
he ch
he ad</w>
hab sburg</w>
ha isa</w>
ha g
h u</w>
gunzen hausen</w>
gs dn</w>
grün dungs
grün det</w>
grupp i
grund züge</w>
gru ber</w>
grou ß</w>
gro b</w>
gri ffe</w>
greß tn</w>
graph ische</w>
gra ben
gouverne ur</w>
gna eus</w>
gn utz
glad bach</w>
gi gan
gewä sser
gesam ten</w>
ger in
ger -verlag</w>
geod ä
gemein same</w>
gebi ag</w>
ge werk
ge lang</w>
ge dä
gedä cht
ge brüder</w>
ge ba</w>
gal a
gabri ele</w>
ga sse</w>
g ts</w>
g lat
g b</w>
für th</w>
für s</w>
führ ten</w>
fuaßbo ispuia</w>
fron t</w>
frieden s
frei n</w>
fre y</w>
fre deri
franzis kus</w>
fort setzung</w>
foi gende</w>
foi ge</w>
fo am
flü gel
flu g</w>
flia ß
flag ge</w>
feuer wehr</w>
fen ster
fen bein
fel lini</w>
fei ern</w>
fe en
fahr ts
f é
f röh
f lat
f fe
f ett</w>
existi ern</w>
exi l</w>
ewi gen</w>
ewi ge</w>
euro -
eulen spiegel</w>
ethnolo gue</w>
et o
et app
eröff nete</w>
erzähl ung</w>
ersch einen</w>
errich tete</w>
ern a</w>
ermög licht</w>
erinn erung</w>
erfin der</w>
er tes</w>
er sta
er seits</w>
er richtung</w>
er mor
er hält</w>
er ben</w>
enz ens
en i</w>
en dete</w>
em p
elsa va</w>
el ke</w>
el fenbein
einzi gar
ein stein</w>
ein richtungen</w>
ein g</w>
ein fluss
ei gne</w>
ehe mals</w>
edi th</w>
e volu
e an</w>
e al
dür r
du mm
drück t</w>
dreißig jährigen</w>
draw bridge</w>
dra men</w>
dr aus</w>
dorf -
domini kan
do bei</w>
do -
dl a</w>
distri c
dil lingen</w>
di ana</w>
di alog</w>
di -
den t
de sk
de me
de bian</w>
dat um</w>
dameri kas</w>
dal s
da mm
d- dur</w>
d' t</w>
d ale</w>
cu t</w>
cro ss</w>
cre ek</w>
colle ge</w>
col o</w>
ci er</w>
chri sta</w>
chi len
chem ischen</w>
che am
ch net</w>
ch heim</w>
car olin
cam bridge</w>
ca sp
ca s
c un
bö sen</w>
bur kina</w>
bru ce</w>
bres cia</w>
brei s
brau t</w>
br a</w>
bos nien</w>
boar isch</w>
bo hn
bo dn</w>
blo ck
bli n</w>
blau en</w>
bir git</w>
bi stums</w>
bi gen</w>
bi e</w>
bi bel</w>
bi ar
bezie ht</w>
betrie ben</w>
besonder er</w>
beri chtet</w>
bene fi
bel gien</w>
be son
be setzung</w>
be o
be at
bar i
bangla desch</w>
bach mann</w>
ba ju
ba h
b ler</w>
b ein</w>
b de</w>
b alt
auss etz
ausgewähl te</w>
ausführ liche</w>
aus zu
aus land</w>
aus gang</w>
aund are</w>
au ver
at us</w>
ass oci
arti kel
ar kan
ar es</w>
ar eal</w>
anth rop
ant wort
andre a</w>
ander er</w>
an ony
amt lichen</w>
am i</w>
am ade
amade us</w>
altern ative</w>
alt es</w>
alt bayern</w>
alt ar
allgem ein</w>
al li
ak s</w>
ag ua
af t</w>
ad an</w>
ac ci
abenteu er
ab ua
a waren</w>
a syl
a sa
a s-
a in
a dam
978-3-8 6
80 00</w>
7- 8</w>
7 50</w>
5 9-
4 50</w>
4 .0
34 1</w>
3-9 00
3-8 6
27 6</w>
199 0
189 1</w>
187 3</w>
18 17</w>
18 15</w>
14 0</w>
13 4</w>
10 8</w>
10 5</w>
1/ 2</w>
1- 6
1 19
1 13
1 1,
0 8</w>
0 7</w>
0 5</w>
. net</w>
. de
. 5
- bo
čecho v</w>
übri gens</w>
überno mmen</w>
ökon o
öb b-
ö n</w>
ö i</w>
én y
är z
ß te</w>
ß er</w>
zz ar
zwo aten</w>
zwisch 'n</w>
zuschau er</w>
zusammen gestellt</w>
zu folge</w>
zu cht</w>
zoi reiche</w>
zoi h
zi pi
zi e</w>
zeu gt</w>
zentral en</w>
zent roi
zen bacher</w>
zeit genossen</w>
za hn
z ischen</w>
yo ko</w>
y p
xylo spon
xylospon gi
x in
wör nitz</w>
währ ungs
wur m</w>
wri ght</w>
won da
wohn ung</w>
wo ar
wissenschaft licher</w>
wissen schafts
wirk ungen</w>
will i</w>
wilhel m
wider spruch</w>
wi g
wi at</w>
west jordan
wer be
weltmeister schaft</w>
wel zheim</w>
wel sch</w>
wei ss</w>
weg 'n</w>
we ats</w>
we at</w>
wat com</w>
war n
wander ungen</w>
wal de
wagen bach</w>
wach sen
wa cht
w å
w is</w>
w es</w>
vul kan
vort räge</w>
vor berei
vor aussetz
vo n-
vo da</w>
vi ola</w>
vi adl</w>
verwen dete</w>
verlie hen</w>
verlags- anstalt</w>
verfü g
ver trei
ver stär
ver schlüssel
ver mu
ver bände</w>
ver a</w>
vari ationen</w>
var ia</w>
val o
val ds</w>
va än
va oani
va li
v r
v g</w>
v el</w>
v ale
ut o</w>
ut ah</w>
unicode block</w>
un k
umar a</w>
um bruch</w>
u0 4
u be</w>
tür kei</w>
tür e</w>
tö ne</w>
tä tigkeit</w>
tten e</w>
tten berg</w>
tt he
tschecho w</w>
tschech ischn</w>
ts hofen</w>
trä ge</w>
tru ppn</w>
tru g</w>
tron d
tro g</w>
trau t</w>
tradi tionen</w>
tra iner</w>
tra chten
touris mus
tor valds</w>
ton y</w>
to g</w>
tn a</w>
tlin git</w>
tit '
tiefen bach</w>
ti ona</w>
ti bet</w>
ti al</w>
ti ak
ti a
tho mp
theater stück</w>
th ausen</w>
ter s</w>
ter ror
ter esa</w>
teil ungen</w>
teil band</w>
tei t</w>
te gern
tat sache</w>
ta un
ta kt
ta ine</w>
ta gung</w>
ta gne</w>
ta ges</w>
t än
t ung
t rü
süd georgien</w>
süd bahn
sü damerikan
sur vey</w>
super tux</w>
sub je
stärk sten</w>
stä ttn</w>
studi o</w>
stre cken</w>
sto w</w>
sto tt
sto i</w>
sto ak</w>
stimm t</w>
ster dam</w>
steph en</w>
stej d</w>
steier mark</w>
ste phan
ste chn
statisti ken</w>
star tet</w>
stadt archiv</w>
stad tre
staat lich</w>
st us</w>
st ischer</w>
st .
ss n
ss lich</w>
spü ü
spät got
spä ta</w>
spu in</w>
sprach wissenschaft</w>
spezi ali
sper r
spei cher</w>
spar tei
sp rich
sor ten</w>
sol o</w>
soido tn</w>
so ut
so r</w>
so it</w>
slaw ische</w>
situ ation</w>
sin f
si -
sen stein</w>
sehens würdi
sehen e</w>
se sia</w>
se linux</w>
se hn
schä tz
schweizer ische</w>
schul ze</w>
schu macher</w>
schno fer
schmidt- den
schlö sser</w>
schles wig</w>
schle gel</w>
schle cht</w>
schil d
sche e</w>
schauspiel erin</w>
schaf fen
sch y
sch tn</w>
sch reck
sch me
san to</w>
san o</w>
san k</w>
sam tes</w>
sal vat
sal vad
sal le</w>
saar land</w>
sa al
s no
rück en</w>
rö hr
rut hen
russ isch-
ror a</w>
ron cola</w>
roman en</w>
ro s
ro m
rit us</w>
rie den</w>
ri ke</w>
rhein land</w>
reze pte</w>
rese arch</w>
religi onen</w>
reich erts
rei hen
re präsen
re ma
re c
re bel
rat tel
ra de
r uth</w>
r ur
r eine</w>
quodli bets</w>
quell code</w>
quarti er</w>
quadrat kilometa</w>
qu anten
pö tt
pä dago
publi k
präsi di
prä gung</w>
programmi er
prakt isch</w>
posi tionen</w>
pon ti
pol i</w>
pol en</w>
poet ik</w>
po p
plat ten
pi em
pi chler</w>
philosoph ische</w>
pfle ge
pfarr dorf</w>
pfar re</w>
pet tenbach</w>
pet er
persön lichkeiten</w>
personen verzeichnis</w>
perchtolds dorfer</w>
per gam
patag onien</w>
partet ua</w>
parlam ent
par bat</w>
paler mo</w>
pa ci
p ü
p é
p tn</w>
p n
p etz
p 1</w>
ouver türe</w>
os mand</w>
ort skern</w>
organis ationen</w>
on ia</w>
ol brich</w>
ober euerheim</w>
ob an</w>
o- polynes
o u</w>
o ffen</w>
o de</w>
o ans</w>
nu mma</w>
nordo stn</w>
no he</w>
nicht -
ni u
ni lo
ni ger
niger ia</w>
neu kirchen</w>
ner/ rommel</w>
nei ll</w>
ne um
natür lich</w>
national mannschaft</w>
nat e</w>
nan ga</w>
namensgeben den</w>
nach dr</w>
na -
n er-
n den</w>
mön chberg</w>
må cht</w>
mut zenbacher</w>
musli me</w>
mpe g-
mounta ins</w>
mon archie</w>
mo sk
mo o
mo ment</w>
mo dus</w>
mit ismus</w>
missi on
min o</w>
min e</w>
milli ar
mili tar
mil tenberg</w>
mich ele</w>
mia ssn</w>
mi tz</w>
mi gu
migu el</w>
metropol region</w>
metho den</w>
metall urgie</w>
met a
men d
mehr eren</w>
medai lle</w>
meck len
me u
me ere</w>
me cht</w>
me -
mau ern</w>
mathe matische</w>
masch ine</w>
marok ko</w>
markt leu
marktleu gast</w>
mar ine</w>
mar e</w>
manu el</w>
mana gement</w>
man ching</w>
malay o-polynes
magn us</w>
mag ische</w>
ma ser
ma ke
ma is
ma hl</w>
ma d
ma ch</w>
lær dal</w>
län gen
län da</w>
lut her</w>
luitpol d</w>
luft bild</w>
lu st
lor enzo</w>
lor d</w>
lor beer</w>
lombar dei</w>
liter arischen</w>
lin n
lie gn</w>
libre ssl</w>
li by
letz ter</w>
le ch
le bn</w>
lang ua
land sh
lan ga</w>
ladi mir</w>
la de</w>
la c</w>
kün digung</w>
königin- mau
köl n
kärn ten</w>
kurz geschichten</w>
kurz geschichte</w>
kuit ua</w>
kuit ua
ku li
ku ba</w>
kru zi
krie gs</w>
krei sen</w>
kre t</w>
kran ken
konz ern</w>
kontinu ität</w>
kontin ent
kon ven
kon text</w>
kommuni stischen</w>
kommand ant</w>
komi tat</w>
kom pi
kollega h</w>
kodi erung</w>
kno w-
klein eren</w>
klein ere</w>
kirch berg</w>
kir chn
kin dl</w>
ki lian</w>
ker stin</w>
ker ami
ken berg</w>
ken bach</w>
ke j
kauf en</w>
kau kasus</w>
kat astro
kari kat
kar ung</w>
kar olin
kar ls
kamp anien</w>
ka st
ka sach
k äl
k wa
k ka
k ell
juden tum</w>
ju ri
ju pi
ju li
jo hr</w>
jesu iten
je dermann</w>
je an-
jan o
jahrhunder te</w>
ja zz
j on</w>
j g</w>
j au
j ara
itali ani
it y</w>
ise mitismus</w>
is la
interpre tation</w>
inter national
inter e
instru mente</w>
indo germanische</w>
indi ana</w>
in ten
in nov
in ischn</w>
in fo</w>
in en
illustri erte</w>
id -
i rische</w>
i mmer
i e</w>
hü tten
hör en</w>
hö hen</w>
hö f</w>
häu fig
hy th
hu ssi
hu bert</w>
hou se</w>
hong kong</w>
hon g</w>
hol m</w>
hoch schui</w>
hoam at</w>
ho tel
ho ha</w>
ho fer
hn d</w>
hir sch</w>
hip-ho p-
hildes heim</w>
herzegowin a</w>
heri bert</w>
her o
her n
hen dri
hel le</w>
hel ene</w>
heit ing</w>
heils bronn</w>
hei de</w>
haus n</w>
hans- jürgen</w>
hand werks
haller tau</w>
hab un</w>
ha id
h ø
h eine</w>
gwi cht</w>
gu ar
gu ant
gschi chtn</w>
grün den</w>
grund riss</w>
groß welzheim</w>
groß hadern</w>
grou ße</w>
griech ische</w>
griach ischn</w>
gre ane</w>
gr e</w>
gr at
gr an</w>
gouverne ment</w>
gnu /
gn de</w>
gli o</w>
gl on
gi b</w>
ghan as</w>
gewer be</w>
gesell schafts
geschi e
gesan gs
gesam te</w>
ges ä
geri chtet</w>
ger trau
geograph ischen</w>
geograf isch</w>
gen u
gen ius</w>
gen gan</w>
gen f</w>
gel ten</w>
gebi at</w>
ge wesen</w>
ge walt</w>
ge sicht</w>
ge messen</w>
ge lehr
ge funden</w>
gang hofer</w>
ga sinn</w>
ga li
g ör
g und
g spuit</w>
g lichn</w>
fünf zig</w>
fäl sch
frie sen
frank ens</w>
fran co</w>
fotografi e</w>
for derung</w>
for chheim</w>
flä chn
flori da</w>
flie gen</w>
fjor den</w>
fil men</w>
fiel en</w>
fia hrung</w>
fi tz
feucht wangen</w>
fan gt</w>
fan g</w>
fal k
fa schings
fa kt
f tn</w>
f is</w>
f dp</w>
exempl are</w>
ex pon
evolu tion</w>
et er
et en
et a</w>
est lichn</w>
erzähl en</w>
erschein ung</w>
ern annt</w>
erklär te</w>
ereign isse</w>
er len
er ische</w>
er hö
er hard</w>
er furt</w>
er fahr
er es</w>
er bach</w>
enzens berger</w>
entste hungs
ent ei
en semb
em a</w>
ell en
elfenbein küste</w>
elekt ri
el en</w>
eis zeit</w>
ein deu
eigent liche</w>
eigen händi
eich el
ei ker</w>
eg gl
ef fekt</w>
ech o</w>
eben fois</w>
eb 'n
eascht auffüahrung</w>
easch ein
eari cht</w>
eafoi g</w>
ea setzt</w>
ea kle
e sselbach</w>
e pf
e f</w>
e cu
dür r</w>
dua chs</w>
du den</w>
dor n
don n
doi 10.
do mo
do min
diver sen</w>
dire kta</w>
din ger</w>
din ge</w>
dien en</w>
di men
di erung</w>
di er
di cht</w>
di agno
dest o</w>
denk schrift</w>
den noch</w>
den n
dat es</w>
dat ein</w>
dach au</w>
da y</w>
da x
da unn</w>
da ga
d b</w>
d ati
cu ria</w>
cor in
colo m
code x</w>
ciu dad</w>
ci l
christoph er</w>
chri st</w>
chen e</w>
cha ch</w>
ce ster</w>
cat o</w>
car i
cam po
calab ria</w>
ca pe</w>
c ă
c ô
c zei
c lon
bürger krieg</w>
böhm ischen</w>
bä cker</w>
bur gru
buen os</w>
btr fs</w>
bschä fti
bro wn</w>
bri cht</w>
bri ada</w>
brenn er</w>
breis gau</w>
bre ve</w>
bra vo</w>
br e</w>
bou y
botan ik</w>
bor go
bon ate</w>
blü ten</w>
blu men</w>
blat tl</w>
bischö f
bild ungen</w>
bia ga
bi us</w>
bi t</w>
bi t
bi ri
bi ch</w>
bezeichn en</w>
betriebssyste me</w>
betei ligt</w>
bet on</w>
bestimm ung</w>
besitz en</w>
bern har
berlin /
bergam asco</w>
ber l</w>
ben ennung</w>
ben en</w>
bel lin
bel bach</w>
bei spü</w>
bei lage</w>
beglei t
begei ster
be merkungen</w>
be arb</w>
bat ta
bar on</w>
bai ern</w>
b nennd</w>
b lie
b b
autor en
autohotke y-
ausschu ss</w>
aus schließlich</w>
aus läu
aus gob</w>
au rora</w>
au ra</w>
au -
atmo sphäre</w>
at om
at en
aster ix</w>
as ci
arti ge</w>
archi vs</w>
ar t-
ar ena</w>
app s</w>
apo the
anwen dungen</w>
ant wor
ant isemitismus</w>
ann äher
ange höri
ange bo
andro id-
and are</w>
an z</w>
an to
an ne
ammer gau</w>
alten berg</w>
alt o</w>
alt h</w>
alp inen</w>
allgä u</w>
all o</w>
ale x</w>
al t-
al man
aksu mit
ai res</w>
agri pp
ag l</w>
afrikan ischn</w>
ad or</w>
ad je
ad albert</w>
a und</w>
a sk
a mis</w>
a ku
a ger
a ga</w>
a den</w>
978-3- 0
978-3-0 0-0
9- 0
9 8
9 6
9 4.
88 88
8- 0
8 6-
77 0
76 4
7 2-
66 66
4- 0</w>
4 5-
30 3</w>
3-9 80
3-8 00
3-8 0
3 25</w>
3 22</w>
29 –
29 0</w>
28 7</w>
26 0-
26 .
24 0</w>
230 5</w>
22 0</w>
20 -0
2 6-
2 1.
189 6</w>
187 2</w>
186 6</w>
186 1</w>
185 9</w>
184 2</w>
180 5</w>
18 24</w>
18 19</w>
18 16</w>
18 10</w>
17 –
17 90</w>
17 50</w>
17 45</w>
16 9</w>
16 5</w>
15 –
15 3</w>
15 2</w>
14 4</w>
14 30</w>
14 00</w>
10 3</w>
10 2</w>
1 10
0- 9</w>
0 6</w>
0 4</w>
0 17
. f
- gu
- al
, 0</w>
ün den</w>
über arb</w>
öffent lichen</w>
ö s</w>
ö lle</w>
ö ko
ó r
är m
än derung</w>
äl tere</w>
ä le</w>
ß enberg</w>
zw eng</w>
zuaf lu
zu satz</w>
zu min
zumin dest</w>
zu cker
zoa gasinn</w>
zi ff
zi en</w>
zet tel</w>
zen dorf</w>
zeit lichen</w>
zauber spiel</w>
za -
z ungen</w>
z orn</w>
z or
z ano</w>
yo ut
y ates</w>
württem berg
wü ste</w>
wöd kriag</w>
wur zeln</w>
wrest ling</w>
wor a</w>
wolf s
wol le</w>
wo pp
wo che</w>
winter sbach</w>
win kel
wiki pedia</w>
wichti gsdn</w>
welt cu
wei ch
wei b</w>
we e
we aner</w>
wat er</w>
wart burg</w>
war te</w>
wa und</w>
vu in</w>
vorsitz ende</w>
vorsitz enda</w>
vor po
vor märz</w>
volks republik</w>
voiksze jung</w>
voi ständig</w>
violonc ello
vide o
vi enne</w>
vi a
verän der
vertei di
verlo r</w>
verglei chende</w>
verfa sser</w>
vereini gte</w>
verein ten</w>
ver sor
ver schw
ver schol
verschol len</w>
ver nun
vernun ft</w>
ver bor
ver b</w>
ver antwort
vari et
var ein</w>
valaf f
vaeffent licht</w>
v aum</w>
us-amerikan ischer</w>
ur ban</w>
unterstü tzte</w>
unterschei den</w>
unter laa</w>
unter fränkischen</w>
untan ehma</w>
untafränk ischn</w>
uni on
und -
un er
umfangrei che</w>
um zug</w>
um sonst</w>
um lauf</w>
um geben</w>
ul rike</w>
uasprin glich</w>
u. a</w>
u p
u i</w>
tz ing</w>
tur k
tur e</w>
ts u
trä ume</w>
trä ga</w>
tro mp
trat en</w>
tradition elle</w>
tradition ell</w>
tra in
to p
ti ve</w>
ti r
ti me</w>
ti ll
ti gte</w>
ti es</w>
ti c
tic ino</w>
the oret
the mat
th or
ter me</w>
ten punkt</w>
tele fon
teil weis</w>
te u</w>
tau ber
tali en</w>
tal -
taf el</w>
tacher ting</w>
ta z</w>
t ums
t ischn</w>
t ale</w>
südo sta
süd deutschen</w>
sü d</w>
sé rab
sérab les</w>
säu le</w>
sä tz</w>
syste matik</w>
su s
su pp
su de
stück en</w>
städte buch</w>
stur z</w>
studi os</w>
studen ten</w>
strukt uren</w>
strei fen</w>
stre ck</w>
straß bessenbach</w>
stor ben</w>
sto r</w>
sto mmt</w>
sto je
stie gn</w>
steu er</w>
ster s</w>
stein -
ste y
ste g
staund 'n</w>
standar ds</w>
stadt führer</w>
staats archiv</w>
sta ges</w>
st ür
sse x</w>
ss es</w>
spä ten</w>
spu ia</w>
sprin g
spra che
spiel s</w>
spiel berg</w>
sp al
sozial demokrat
sop ra</w>
sonder ausgabe</w>
son dan</w>
sol ar
so in</w>
slowen ien</w>
siedl a</w>
sie ger</w>
sie ge</w>
sid östli</w>
sicher heits
si oni
si erten</w>
si chts
si at</w>
si an</w>
sh utt
ser en
sen feld</w>
selbst mord</w>
selb ständige</w>
sel ten</w>
sel ten
sei tig</w>
sei del</w>
se mit
se m
se g
se ces
schw er</w>
schni tz</w>
schni tte</w>
schmi e
schick sal
schi m
schim born</w>
scher z</w>
schaf ter</w>
sch or
sch mal
sch l</w>
sch in</w>
sau mm
sat urn</w>
sant ana</w>
sam en</w>
salvad or</w>
sa un
sa ck</w>
s- verlag</w>
s stn</w>
s qu
s p</w>
s li
s d</w>
rö mer
rö ll
ru h
roth enburg</w>
ron a</w>
ro stow</w>
ro magna</w>
ro llen</w>
ro ko
ro gt</w>
ro de</w>
ro d</w>
ro ber
rin gs</w>
ri son</w>
ri m
reze ption</w>
reno vi
renn a</w>
ren z</w>
reise führer</w>
reich ste</w>
regi arungs
regen t</w>
refer enzi
recht liche</w>
re vol
re ssion</w>
re präsent
re gu
re formi
rat s</w>
raiff eisen
ra y
ra ssen
ra s</w>
ra ffa
r que
rque z</w>
r hyth
r ausch</w>
py rami
psych ologie</w>
pseu don
proze ss</w>
protokol l</w>
programm s</w>
pro py
pri vi
pre ußen</w>
prat er</w>
polit ischer</w>
po hl</w>
po e
plur al</w>
platt form</w>
picass os</w>
pi sto
pi an
ph ra
pfle gt</w>
pfer d</w>
pf t</w>
pf oi
perspekti ve</w>
perio de</w>
paten schaft</w>
pass auer</w>
parten kirchen</w>
paro di
pan zer
pan or
p m</w>
p lö
p l</w>
p fi
p ati
p ale
pale st
ou l</w>
ost ti
os lo
orts noma</w>
ort a</w>
or bat
or a</w>
onwe alth</w>
ologi cal</w>
ol las</w>
och os</w>
observat orium</w>
oberpfäl zer</w>
ober -</w>
o tt</w>
o ssa</w>
o mo
o ise</w>
o go
o ettingen</w>
nörd lingen</w>
näm lich</w>
nul l</w>
nord rhein-
nor damerika</w>
no u</w>
no m</w>
niv eau</w>
nietz sche</w>
ni ger-
ni g</w>
ni cara
neu bau</w>
nei s</w>
nei a</w>
ne pal</w>
ne ch</w>
ne a
napole on
nam o</w>
nahe zu</w>
nach folge</w>
na h</w>
na gel</w>
n ö</w>
n i</w>
n enna</w>
mün chn
mühl en
mü ller
mär z
män ner
mä hren</w>
má rquez</w>
mutter sprache</w>
musi c</w>
mund arten</w>
mo st
mo mba
momba sa</w>
mittel n</w>
militär -
mil an</w>
mi x
mi sérables</w>
mi dn</w>
metro polit
metamor pho
men de</w>
mehr fach</w>
me o</w>
maxi male</w>
matri kel</w>
markt l</w>
mar y</w>
mar s</w>
mar burg</w>
mann stadt</w>
man ia</w>
mala ya</w>
m ola</w>
m h</w>
lö we</w>
luft hansa</w>
lu x</w>
lu mp
lu ci
lon ge</w>
lokal en</w>
lo ur
lo s
lo gn</w>
lo ge</w>
llo yd</w>
lin gui
lin g-
lin es</w>
lin den
lin col
lili put
lie uten
lie des</w>
lie bt</w>
lich ung</w>
lich te</w>
li tau
li ga
li g
li d</w>
leopol d
lei tner</w>
lehn t</w>
leben den</w>
lea gue</w>
le hnung</w>
le c
landes museum</w>
landes hauptstadt</w>
land schoft</w>
lan dis</w>
laa er</w>
la w</w>
la ssing</w>
kö hler</w>
kyrilli schn</w>
kua z
kti ve</w>
kti oni
kti ka</w>
ks am</w>
kroas stod</w>
kro aten</w>
kreu zer</w>
kontin ui
kontin ent</w>
kon ya</w>
kon ju
kon gre
komple x</w>
kommand o</w>
kolum bien</w>
ko th
kno ten</w>
klavier trio</w>
klassi zi
kla gt</w>
kl ö
kirch liche</w>
kin o
kenn zeichnet</w>
kei ts
kei ten</w>
kat alo
kar tha
kar a
kap elln</w>
kant onen</w>
kam era</w>
kabin ett</w>
ka u</w>
ka ssel</w>
ka plan</w>
k z</w>
k ent</w>
k ations
justi z</w>
jur y</w>
johanne sberg</w>
je ds</w>
jack son</w>
ja ari
j -
it s</w>
islam ische</w>
is ola</w>
is o-
is er
inter view</w>
instru ment</w>
institu te</w>
inde x</w>
in tel
in klusive</w>
in hoit</w>
in hoit
identi fizi
iden tisch</w>
i pa</w>
i gen</w>
i bn</w>
höl z
hö ll
hö hlen
hö he
hä tten</w>
hr -
hoch schuin</w>
hoch land</w>
hob bach</w>
hoa ssn</w>
ho h
hl ung</w>
hl t</w>
hil ton</w>
hi malaya</w>
hey ne</w>
heu bach</w>
herr scht</w>
herkunfts wörterbuch</w>
her big</w>
hel m</w>
hel fen</w>
hei rat</w>
he ssen</w>
he kto
he ben
he ari
hay dn</w>
haupt artikel</w>
han no
hai fa</w>
ha z
ha wai
ha in
ha i</w>
h s
h oni
h eller</w>
gå b</w>
gymnasi ums</w>
gwe sn</w>
guten berg-
gul den</w>
größ er</w>
gro ss
gro b
gro aß
grenz über
grei f</w>
gre en
glie darung</w>
gleich ung</w>
glei chn</w>
gil bert</w>
gie ß
gi o
gi erte</w>
gestal t</w>
geograph isch</w>
gene alogie</w>
gen es</w>
gen er</w>
gem ein</w>
gele sen</w>
gele gen</w>
geist liche</w>
gei ger</w>
gehör enden</w>
geheim nisse</w>
gedi cht
gebu ats
ge widmet</w>
ge we
ge wal
ge liebte</w>
ge h</w>
ge gliedert</w>
ge druckt</w>
ge druck
garten schau</w>
gala xi
g é
g è
g unga</w>
g schei
g on</w>
g ne
g is</w>
g foigt</w>
fü llt</w>
fü ll
fö derl</w>
fun ktioni
fu ch
früher en</w>
fri ha</w>
frei lassing</w>
frei er</w>
franc is</w>
fortge schri
forsch ungsinstitu
form ation</w>
fo it</w>
fluss system</w>
fen ster</w>
fen ri
fei ert</w>
fe der
favor itn</w>
fahr ten</w>
fa ss</w>
fa chen</w>
f ut
f um</w>
f is
f fi
f ein</w>
experi ment
eu -
etym ologisches</w>
eth nie</w>
erst es</w>
ers at
ern ä
erei en</w>
er ster
er no
er holungs
er end</w>
er baute</w>
epp a</w>
enz e</w>
entwick lungen</w>
entspre chn
entfe anung</w>
ental er</w>
ent wurf</w>
ent staundn</w>
engli sch
en heim</w>
eli as</w>
el senfeld</w>
ekke hard</w>
einzel nen</w>
einwohner und</w>
eindeu tig</w>
ein halb</w>
eihwohna und</w>
eigen verlag</w>
eigen ständige</w>
ehemo lign</w>
ed gar</w>
eb'n fois</w>
eam eg
eafoi gt</w>
eab au
e o</w>
e ching</w>
dör n
dur hob</w>
dur chs</w>
dun cker</w>
duach 'n</w>
du n</w>
ds bach</w>
dre ht</w>
dramat ischen</w>
dort mund</w>
doro thea</w>
dorf s</w>
dorf /
do stoje
do a
dir ne</w>
diplo marbeit</w>
digitali sat</w>
dien er</w>
di scha</w>
di erte</w>
di ck
denk moi</w>
den kt</w>
del a</w>
de th</w>
de sign
de li
de cor
de cker</w>
de anst
daten verarbeitung</w>
dar i
da y
da vi
da kota</w>
da hoidn</w>
da g
da -
d schi
d rong</w>
d rau
d ran
d ne</w>
cti cut</w>
conne cticut</w>
con stan
comm onwealth</w>
comm edi
col or
col i</w>
co o
cli ent</w>
chti gt</w>
cht -
chroni ken</w>
chi e</w>
chi -
charak teri
ch tt
ch l
ch ent
castel nuo
car ta
c ru
c lar
c d-
böhm ische</w>
bären reiter</w>
bä ume</w>
by zan
burgen ländischen</w>
burg und</w>
burg hausen</w>
bundes ministerium</w>
buch berg</w>
bu ll</w>
bu id</w>
bu ff
bruk ner/rommel</w>
bronze zeit</w>
bro t</w>
brie fen</w>
bri an</w>
bri a</w>
brett l</w>
bre ton
bor d</w>
boo t</w>
bol d</w>
boar ischen</w>
bo w
bo ston</w>
bo do</w>
blu t</w>
blu men
blan kenbach</w>
bla sius</w>
bla s
bis mar
bill y</w>
bi ge</w>
bi acha</w>
bezieh ungsweise</w>
bezeichn ungen</w>
bevejkarungs dichte</w>
beteili gung</w>
besu cher</w>
bestä tigt</w>
bestimm ungs
bestimm ten</w>
bestehen de</w>
besonder heit</w>
berühm t</w>
bern auer</w>
beri chten</w>
ben er</w>
bekenn tnis</w>
bekann ten</w>
bei fall</w>
bedeutend sten</w>
bedeut enden</w>
bede ckt</w>
be hea
be gründung</w>
be gon
be fehl
be endet</w>
be ate</w>
bay reith</w>
bau d</w>
ban e</w>
bam berger</w>
bal ti
baby l
ba o</w>
ba li
ba de
ba am</w>
b we</w>
b stondn</w>
b schreibt</w>
b .
az t</w>
außer gewöhn
automat isch</w>
auto boh</w>
aus bildung</w>
augu sta</w>
augs burger</w>
auf log</w>
au sse
ati ge</w>
at l</w>
at eli
ast i</w>
ass unta</w>
aserbaid schan
arrondissem ents</w>
armen ischen</w>
ari -
archä ologischen</w>
architekt ur
archite kten</w>
aran í
anti ochos</w>
anthrop ologie</w>
antar ktika</w>
angrenz enden</w>
angel o</w>
an hän
an den</w>
amper e</w>
amon te</w>
am sterdam</w>
am s</w>
am ali
alt hoch
ali s</w>
al n</w>
aktu ellen</w>
aktivi täten</w>
akadem ische</w>
ak ro
air bus</w>
afro amerikan
afri ka
af lä
ad i</w>
abschie d</w>
abra ham</w>
abcha sien</w>
ab schluss</w>
ab handlungen</w>
ab bildungen</w>
a ward</w>
a pu
a ka</w>
a j
a ca
97 8
90 /
8 3
7 .000</w>
60 00</w>
54 0-
4 4-
3-9 24
3-9 23
3-45 8-
3- 20
3- 0</w>
3, 9</w>
26 4</w>
24 .
23 7</w>
22 8</w>
200 -
2 19</w>
1919 –
187 7</w>
184 6</w>
180 9</w>
180 4</w>
18 9</w>
177 9</w>
17 00</w>
16 .
150 4</w>
15 88</w>
15 7</w>
15 .000</w>
14 1</w>
13 9</w>
13 30</w>
12 5-
1- 7</w>
1, 3</w>
1 100</w>
0- 8</w>
0 .000</w>
. org</w>
. ipa</w>
- gletscher</w>
čecho vs</w>
über ein
üb lich</w>
øst fol
østfol d</w>
ø ya</w>
öst licher</w>
ökono mie</w>
öff net</w>
éné ral</w>
è res</w>
äuß ersten</w>
äuß eren</w>
än derungen</w>
ähn elt</w>
á r
á n
ß l</w>
ß graben</w>
ß en-
zá par
zwei mal</w>
zua sätzlich</w>
zu gun
zu griff</w>
ziem lich</w>
zi gen</w>
zi er
zi ele</w>
zet te
zepp elin</w>
zent ral</w>
zeitgenöss ische</w>
zeit ungs
zam ma
z ün
z ze</w>
z onen</w>
z ismus</w>
z d</w>
xi ii</w>
xi ang</w>
wü st</w>
währ ing</w>
wo ara</w>
wit we</w>
win btrfs</w>
wil lige</w>
wiener isch</w>
wiener berg</w>
wien /
wi tt</w>
westjordan land</w>
wester mann</w>
wern feld</w>
werk verzeichnis</w>
wer dn</w>
weni gen</w>
wel ten</w>
wel ten
weiß russland</w>
wei len</w>
wea ke</w>
we y
we l</w>
we h
we ga</w>
wat er
war th</w>
wahr nehm
waf fen
waf f
wa ppen
w etz
vö gel</w>
vä ter</w>
vu t</w>
vu e</w>
vor stellungen</w>
volk stüm
volk ss
volkss än
vo l</w>
vo al
vit ale</w>
vir gin
vin o</w>
vil le
vie ws</w>
vi llen
vi gn
vi ell
vi eh
vi e</w>
vi c</w>
verwand t</w>
verwaltungs gliederung</w>
versi onen</w>
vern ment</w>
verla ssen</w>
verge ssene</w>
vereini gt</w>
verbindungs straßen</w>
verbess erte</w>
ver zeichnet</w>
ver zeich
ver ti
ver stehen</w>
ver lu
ver bo
ver band
venezu ela</w>
ven o
ven etien</w>
vei t</w>
ve st-agder</w>
vaöffent licht</w>
vawen det</w>
van ia</w>
val ley</w>
val auf</w>
va ste
va kafft</w>
va kaf
v ens</w>
v ann
us-amerikan ischn</w>
ur m</w>
ur l-
ur g</w>
ur er</w>
ur aufgeführt</w>
unterschie d</w>
unter wittbach</w>
unter quert</w>
untaschie dn</w>
universi tet</w>
universal -
universal- bibliothek</w>
unicode- codepoint</w>
unabhängi gkeit</w>
unabhängi ge</w>
un -
um schlag
um en</w>
ukra ine</w>
ueber reut
uaspr ün
uah zoagasinn</w>
u1 e
u d
tä ts
tä tig</w>
ty po
tur in</w>
tu am</w>
tt chen</w>
tsu bis
tr ent
touri stische</w>
topograph ische</w>
to p-
to ba
tipp 10</w>
tier park</w>
ti mo</w>
ti an</w>
ti a</w>
thomp son</w>
thei l</w>
the ologische</w>
th ron</w>
text- decor
text-decor ation
text-decoration n
text-decorationn one</w>
teu bner</w>
ten de</w>
tei ch</w>
tegern see</w>
techni k
te x</w>
te unz</w>
te stn</w>
tau ber</w>
tar i</w>
tan o</w>
tal bahn</w>
tages zeitung</w>
taf erl</w>
taf eln</w>
ta bak
t v-
t ad
südbahn gesellschaft</w>
süd- nord-
sü ß
symboli k</w>
syl vania</w>
sy rien</w>
sw r</w>
su mm
su dan
stuttgar t/
stu fe</w>
strå ß'n</w>
stro ng</w>
stra sse</w>
stra it</w>
stra fre
stif ter</w>
stich wort</w>
sti mmi
sti ll
sti gen</w>
sti ch</w>
stat tet</w>
stand s</w>
staf fel
stadt lauringen</w>
stad ler</w>
staats -</w>
sta lin</w>
sta hl</w>
st å
st um
st enz</w>
ss in
squ are</w>
spä tere</w>
spur en
spuren suche</w>
spo at
spezi elle</w>
spezi al
spezi a</w>
sper re</w>
spei del</w>
span ischn</w>
sozial wissenschaften</w>
sozial va
sowjet republik</w>
sonn tags
somm lung</w>
sol u
societ y</w>
so tt
so b
sla wen</w>
sla v</w>
skul tur</w>
sko p
sk no
sk en</w>
sk at
sitz t</w>
sinf onie</w>
sin t-
sin o</w>
sin gt</w>
simp son</w>
siedlungs gebiet</w>
sie ux</w>
sicht bare</w>
si r
si destli</w>
shosh oni</w>
sh ō
seß lach</w>
ser ra</w>
ser aph
seraph im</w>
sen qu
sei h
sehenswürdi gkeiten</w>
se min
se her</w>
se dl
se d</w>
sci pio</w>
schü tzen</w>
schü ler</w>
schön brunn</w>
schö pfer</w>
schwar z-
schröt ling</w>
schrift zeichen</w>
schopf loch</w>
schnofer l</w>
schni tten</w>
schna i
schmu ck</w>
schlu cht</w>
schlo ß
schlo s
schlie ßen</w>
schlia ßt</w>
schla f
schil lings
schillings fürst</w>
schi er
schei dt</w>
sche hen</w>
schat z
schaft lich</w>
schaf ft</w>
scha berna
sch å
sch licht</w>
sch l
sch bui
sat zung</w>
sal o
sa lin
sa har
s r</w>
s ln</w>
s land</w>
s de</w>
s co</w>
s cal
rä ul
russ lands</w>
ru ine</w>
ru he
ru g
ron ald</w>
roman tische</w>
ro tem</w>
ro o
ro ms
ro ma</w>
ro g
ro bo
rinch nacher</w>
rilli c</w>
richt en
rich tet</w>
ri ß</w>
ri l</w>
ri ga</w>
ri fu
rifu gio</w>
rhô ne-
rhône- alpes</w>
rheinland- pfalz</w>
rezen sionen</w>
rett ung</w>
restauran t</w>
reichs stod</w>
rei t</w>
rei hen</w>
rei h</w>
region al</w>
regi arung</w>
reg nitz
refer enz
re tzbach</w>
re source</w>
re son
re per
re alismus</w>
rah ma</w>
rade macher</w>
ra pper</w>
ra m</w>
ra in</w>
ra gende</w>
ra -
r è
r n</w>
r fc</w>
r enz
r eini
quell en
que ens</w>
pöl ten</w>
py ren
pun kten</w>
publik ationen</w>
publi kum
psycho analyse</w>
präfe ktua</w>
prä lu
protokol le</w>
proble matik</w>
pro bst</w>
privat en</w>
prin ze
prin z
prin ce</w>
premi ere</w>
pp er
ponti da</w>
pon te</w>
poet ische</w>
po ppen
plat zi
plat z
pla y</w>
pla ce</w>
pisto ia</w>
piem ont</w>
phi lli
pfal z-
pf lau
pf a</w>
pet ri
pet i
per u
penz berg</w>
penn sylvania</w>
pe ppi</w>
pe che</w>
pau lo</w>
passi ert</w>
pas cal</w>
paro dien</w>
par t</w>
par an
par am
par all
pa ssen
p ter</w>
p kin
p hn</w>
p ant
orthodo xen</w>
origin ale</w>
ori us</w>
ori k</w>
organ iz
or eti
op us</w>
op in</w>
op ern
on tari
olo meo</w>
olo gien</w>
ol ten</w>
ol ler
ol l</w>
ol ga</w>
og fon
offi ce</w>
oden wald</w>
oc ta
ober österreichische</w>
ober wittbach</w>
ober franken</w>
ober bayerischen</w>
ob al
oa bat</w>
o vid</w>
o og
o hio</w>
o cl
ocl c</w>
näm li</w>
nun a
nuna vut</w>
nord west</w>
no wo
no s</w>
no ma
no bel</w>
niko l</w>
nieder schlesien</w>
nicara gua</w>
ni bel
neuf château</w>
neu feld</w>
neu burg</w>
netz seitn</w>
nept un</w>
neb n
nead licha</w>
ne x
ne cke</w>
nam ans
nach richten
nach richt</w>
na is</w>
na i
na ckte</w>
na ci
n va</w>
n ist</w>
n ina</w>
n annte</w>
n .
mün chberg</w>
mög liche</w>
mär ty
musikali schen</w>
mus cu
muscu lus</w>
muni ci
mu hr</w>
mu ham
muham mad</w>
mu ada</w>
mp lot</w>
mp 4-
motor s</w>
mor pho
mon za</w>
mon tage</w>
mon ogra
mon go
mon aten</w>
mon at
moder ni
mo ses</w>
mo ore</w>
mo deri
mo dena</w>
mo de</w>
mittel -</w>
mit hri
mithri dates</w>
minu skel</w>
min gara</w>
mil ton</w>
midd loi
mi tsubis
mi s
mi es
mi ck
mexikan ische</w>
mexi kos</w>
mess ner</w>
mei ßen</w>
mei ßen-
mei len
mei er
mehr mals</w>
mega deth</w>
mecklen burg-
me sse</w>
me ah</w>
maß nahmen</w>
mau rer</w>
mau r
materi al</w>
mask u
mart ins
mart in-
markt platz</w>
mari ä</w>
mar ter
mar ne</w>
mann sthal</w>
mann die</w>
man o</w>
man ch
ma ße</w>
ma pu
ma ju
maju skel</w>
ma gy
ma ck
ma chter
m per
m b</w>
lü ge</w>
lö ste</w>
lö s
ly on</w>
lon don
lohr bach</w>
lo cal
lo -
ling ton</w>
lin den</w>
lille hammer</w>
liliput bahn</w>
lief ert</w>
lie d
li eng
leut n
letz t
leopol di</w>
len g</w>
lein waund</w>
lei ta</w>
lei chter
lehr -</w>
le ón</w>
lau mer</w>
langen pettenbach</w>
lands hut</w>
land tags
la win
la w
la k
la ge
la chen</w>
l ett
l be</w>
l ati
königs hausen</w>
königin-mau d-land</w>
kön nte</w>
kämpf t</w>
kut scher</w>
kunst geschichte</w>
kunst führer</w>
krä h
kruzi fix</w>
kro ft
kro etz</w>
kro ati
kriti ker</w>
kreis stadt</w>
kre m
kre bs</w>
kraus enbach</w>
konstru ktion</w>
kon zentri
kon stantin</w>
komö dien</w>
ko tz
kno pp</w>
km 2</w>
klu b</w>
kloster ku
klein laudenbach</w>
klass ischen</w>
kla gen
kini reich</w>
kin ä
kin da</w>
ki mmd</w>
ki li
ki a
ker l</w>
kem nath</w>
kel ey</w>
kei lberg</w>
kateg ori
kat e</w>
karl stadt</w>
kar bach</w>
kar ak
kapi tali
kapi tal</w>
kanz lei</w>
kam m
kais ers</w>
kaf ka-
kabar ett</w>
k ren
k mplot</w>
k j
k ische</w>
k h</w>
k ette</w>
k er-
k ein
k -</w>
jü discher</w>
jör n</w>
jupi ter</w>
jung frau</w>
jugend stil</w>
joar es
jako b
ja s
j at
j ana</w>
j am</w>
italiani .
it re
it i</w>
iser nia</w>
is en</w>
ing mar</w>
info seite</w>
industri alisierung</w>
indi an
in ve
in tro
in schriften</w>
in ka</w>
in ger
ill mitz</w>
i ring</w>
i ri
i oba</w>
i o</w>
i li
i i.
i ert</w>
i ban
hör spiel</w>
hän gen</w>
hu mor</w>
hu b</w>
holz kirchen</w>
hof mannsthal</w>
hoam seitn</w>
ho z</w>
ho pkin
ho kka
ho fen
ho e
himmel fahrt</w>
high -
hi ttn</w>
hi t</w>
herrn gi
herrngi ersdorf</w>
herr scher</w>
her der
herder -lexikon</w>
hen rik</w>
hen ri
hel d</w>
heinrich s
hein z-
heimat pflege</w>
hei l</w>
heer es
hebrä ischen</w>
hebrä isch</w>
he gel</w>
haus en
haund schrift</w>
har moni
hap tsäch
hanno ver
hand l</w>
hall statt</w>
haf fa</w>
ha wa
ha ir
h ür
h s</w>
guatem ala</w>
gu id
gu ggen
gu ad
gso gt</w>
gschri m</w>
grün morsbach</w>
größ ter</w>
grund sätzlich</w>
grund begriffe</w>
groß teil</w>
groß laudenbach</w>
groß en
groa ße</w>
gro is</w>
grin da</w>
griech isch-
gri mm
gre at</w>
grafi e</w>
gor ch</w>
go w</w>
go vernment</w>
go tik</w>
go d
gne- rhône-alpes</w>
gn è</w>
gmo at
gli one</w>
glet scher
glei chn
gl eng</w>
gewin n</w>
geschichts blätter</w>
geschicht liches</w>
gesch ei
geschei ter
german ischn</w>
gerichts bezirk</w>
ger va
ger ber</w>
geograph ischer</w>
geograf ischn</w>
geni l</w>
gen g
gen dorf</w>
gemäl de
gel t</w>
gel s</w>
geisel bach</w>
gei gn</w>
gegrün dete</w>
gegen d</w>
gebir g
ge steine</w>
ge stein</w>
ge plant</w>
ge lo
ge leit
ge lan
ge denken</w>
gal i</w>
ga zette
ga t</w>
ga d</w>
g- dur</w>
g énéral</w>
g stod</w>
g sej
g samt
g mb
g macht</w>
g ischer</w>
g allen</w>
g /
g .
förmi g</w>
fä hn
funk stelle</w>
fu hr</w>
fro hn
frei licht
frei a</w>
fraun hofer</w>
franzö sisch</w>
franken wald</w>
fr é
fort una</w>
fort schritt</w>
for mu
foing dn</w>
fo x</w>
fo hrzei
flug platz</w>
flo ßgraben</w>
fle ck
flag gen</w>
fichtel gebirge</w>
fiar stn
fia hd</w>
fi re
fi hrung</w>
fi fa</w>
fi cci
ficci ones</w>
fi ad</w>
ff er-
fel sk
fej d</w>
fehl a</w>
fal klan
fahr zeug
fa una</w>
fa so</w>
fa bian</w>
fa -
f y
f räul
f at
ex tra
europä er</w>
europ ean</w>
ethn ologie</w>
et ab
est land</w>
erweiter t</w>
ern ennung</w>
erlan ger</w>
erinner ungs
erfolgreich ste</w>
erfolg reich</w>
erfin dung</w>
er lö
er lei</w>
er lbach</w>
er itre
er ing</w>
er hebt</w>
er ben
er /
entschei dungs
entdeck te</w>
entde cken</w>
ent stammt</w>
ent n</w>
enn en</w>
ener gie
en glän
en em
enem y</w>
emili a-
elektro technik</w>
elekt rische</w>
el li
eisenbahn geschichte</w>
eis erne</w>
ein zugs
ein teilung</w>
ein sätze</w>
ein hei
eih zugsgebiet</w>
eigen es</w>
ei sen</w>
ei l
ehe mois</w>
ecu ador</w>
ea hn
e z
e wald</w>
e ste</w>
e chte</w>
e brach</w>
dörn steinbach</w>
dän ischen</w>
dä ne
durch ge
dur zak</w>
dur st</w>
dun kel</w>
drück e</w>
druck s</w>
dru n</w>
dro emer</w>
dri o</w>
dre y</w>
dra mmen</w>
dra mati
dra ht</w>
dr a</w>
dor ra</w>
do p
diver sn</w>
dikt atur</w>
digi tal
di af
deutschsprachi ge</w>
detle f</w>
depar tements</w>
denkmal geschü
denkm äl
denk mo
denk ens</w>
den wegweiser</w>
del ph
degn dorf</w>
de rich</w>
de hnt</w>
dau ern
darstell ungen</w>
darauf hin</w>
dar win</w>
dar an</w>
dan em</w>
damm bach</w>
damali gen</w>
da mm</w>
da men</w>
da gegen</w>
d p-
d onien</w>
czei ke</w>
cy rillic</w>
cum bria</w>
cra ft</w>
cor nate</w>
comuni -
comuni- italiani.
comp an
compan y</w>
color ado</w>
co ver
co perni
ck ner</w>
ci tt
ci cer
christ us</w>
christ lich-
christ entum</w>
chen er</w>
chem ische</w>
charak ter
cha kali</w>
ch opin</w>
ch ern</w>
ch em</w>
cer ro</w>
cat ania</w>
carta go</w>
car ola</w>
capi tal</w>
ca ssi
ca o</w>
ca li
c tor</w>
c ran
c ing</w>
c ant
bü hnen</w>
bö se</w>
bus h</w>
burk hart-
burgru ine</w>
bur n</w>
bunde spräsiden
bui gar
bui dung</w>
bu x
bu sse</w>
bu mmel</w>
bs un
brü ssel</w>
brun na</w>
bruk ner</w>
bru ch
bre tagne</w>
bre mb
braun e</w>
brau ch
brasi li
bran che</w>
br ö
bo wski</w>
bo tschaft</w>
blie m</w>
bli ck
bischof s</w>
birn feld</w>
birk häuser</w>
biri for</w>
bir ne</w>
biographi en</w>
bio technologie</w>
bild hauer</w>
bia ł
bi lla</w>
bi lanz</w>
bi ach
beziak s
bezeichn t</w>
bezeichn eten</w>
bewahr t</w>
betra chtet</w>
besu chte</w>
berei chen</w>
ber tha</w>
ber t-
ber s</w>
ber keley</w>
benefi z
benachbar ten</w>
behör denwegweiser</w>
behaup tet</w>
begon nen</w>
beein flu
bedin gungen</w>
bedeut ender</w>
bedeit nde</w>
bedeit end
be zeichnete</w>
be wal
be oba
be lieb
be lei
be ka
bayern viewer</w>
bay rische</w>
bau tn</w>
bau meister</w>
bau mann</w>
batta glia</w>
bat ti
basis wissen</w>
bart olomeo</w>
bar tho
ban en</w>
ban af
banaf o</w>
ball ungs
ball ett</w>
bahn ←</w>
bahn station</w>
bahn hof
bahn -
ba varia</w>
ba un
ba sso</w>
ba ss
b w
b te</w>
b stä
außer halb</w>
außen politik</w>
auß n
auver gne-rhône-alpes</w>
auto bo
auseinander setzung</w>
aus wär
aus strahlung</w>
aus grab
aus gang
aus fahrt</w>
aus -
augu ste</w>
augsch burg</w>
auf schwung</w>
au e</w>
au di</w>
au bach</w>
ati ver</w>
ati v
at tra
at orium</w>
at ac
astrono mie</w>
as bach</w>
archi ve</w>
arab ischn</w>
arab isch</w>
ar o</w>
ar no</w>
ar cha
ar ag
aquar elle</w>
ann inger</w>
ander n</w>
and l</w>
and ane</w>
an spruch</w>
an dorra</w>
amen dingen</w>
amat eur
alzen au
alter tums
alt feld</w>
alman ach</w>
al z
al ta</w>
al ta
al s
al la
al bu
al .
aku stik</w>
aktuali sierte</w>
akti en
ak er</w>
ai denbach</w>
adel s
abthei lungen</w>
abi tur</w>
abgeordn eter</w>
abge leitet</w>
aben ds</w>
a wa</w>
a ung</w>
a ung
a ko
a it
a emili
978-3- 78
9 °</w>
8 42</w>
8 00
8 0-
7- 0
7 9-
7 50
60 8-
6- 0</w>
5 ′</w>
5 1°</w>
5 1.
5 00
45 ′</w>
4- 2</w>
4 6-
36 2</w>
34 0</w>
3-9 3
3-9 28
3-9 25
3-8 54
3-42 6-
3-4 86-
3-4 6
3 2-
3 12</w>
27 0</w>
27 .
25 –
25 .
2. 0</w>
2, 8</w>
2 97
2 12</w>
1– 3</w>
188 5</w>
188 4</w>
187 0</w>
184 4</w>
18 5</w>
18 50
18 25</w>
18 .
170 7</w>
17 91</w>
17 2</w>
160 1</w>
16 41</w>
16 1</w>
15-0 10
15 8</w>
12 6
1- x</w>
1- 5</w>
1 16</w>
0 9</w>
0 00</w>
- s
- a
ʻ i</w>
überra sch
östareich ischn</w>
östareich ische</w>
öffent lich</w>
ö kum
è ve</w>
å l
å ch</w>
än d</w>
äl teren</w>
ähn liche</w>
ß lich</w>
ß bach</w>
´ s</w>
zä h
zwo ate</w>
zwisch n
zwer g
zweit größte</w>
zwei tes</w>
zwei fel</w>
zw in
zusammen schluss</w>
zur zeit</w>
zuaflu ss</w>
zol l
zoa chn
zit ate</w>
zi ller
zerstör ung</w>
zeitgenöss ischen</w>
zei gte</w>
zei gn</w>
zei gen</w>
ze j
ze -
z wil
z on</w>
z ein
z 'n</w>
yout ube</w>
y os
xi a
xia omi</w>
wür z
wür fe</w>
wö chent
währ nd</w>
wur st</w>
wua t</w>
wor dn</w>
wol lt</w>
woiwod schoft</w>
wohn ungen</w>
wohn sitz</w>
wohl stand</w>
woa ß</w>
wn shi
wnshi p</w>
wissn schoft
wir st</w>
wir kt</w>
windi gkeit</w>
win des</w>
will y</w>
wilden stein</w>
wilden see</w>
wil des</w>
wies ba
wiel and</w>
wie gnd</w>
wider stand</w>
wiat schofts
wi th</w>
wi der</w>
west licha</w>
welter be
welt meister</w>
welt kultur
welt cup</w>
weinbau gebiet</w>
weih te</w>
wei ten</w>
wei de</w>
wei d</w>
wei cht</w>
war d-
wander wege</w>
wander n</w>
wandel te</w>
waldaschaf fer</w>
wal ser
wal lis</w>
wal i</w>
wal dro
wal der</w>
wal den
wahr e</w>
waf fe</w>
wa t</w>
wa hr</w>
w on</w>
w he
w au
vortra g</w>
vorpo mmern</w>
vor über
vor zu
vor mals</w>
vor log
vor land</w>
vor ar
volu men
vollständi ges</w>
volksthe ater</w>
volks lieder</w>
vol ley
voi k
vo kal</w>
vo gt</w>
vis u
vier ten</w>
viell eicht</w>
vie weg</w>
vi tät</w>
verwal tung
verstär kt</w>
verlags haus</w>
verhäl tnisse</w>
verhäl tn
vergnü gen</w>
verge ssen</w>
verfüg bar</w>
verfass ers</w>
verfa sst</w>
ver steig</w>
ver steht</w>
ver sprechen</w>
ver oni
veroni ka</w>
ver ona</w>
ver mehr
ver bund
ver b
ve b</w>
vasua cht</w>
variet ä
val en
vagab und
vagabund us</w>
vafo sst</w>
va wand
va schli
va hin
va gleich</w>
va einigung</w>
v y</w>
ut sch</w>
us etts</w>
us be
ursprin gli</w>
ur lau
ur heber
ur d</w>
ur bar</w>
unternehmens führung</w>
unterhal tungs
unter tan</w>
unter ir
untaschei dn</w>
unta 'n</w>
unser es</w>
universitäts -</w>
universitä ten</w>
und m</w>
unbekann ter</w>
un e</w>
un da</w>
umge hung</w>
umfan greich
umfa sste</w>
umfa ssen
um gem</w>
um fass
ull rich</w>
uaspr ung</w>
u. s.</w>
u ssi
ussi a</w>
u ss
u ck
u at
tür me</w>
tür ken
tz ting</w>
tz n</w>
tur ni
tur m
tun esien</w>
tu p
tup í
tu a</w>
tter n</w>
tschech ische</w>
tsch ad</w>
ts reuth</w>
tro jan
trie b
tri be</w>
trei ber</w>
trei ben</w>
treff lich</w>
tre u</w>
tre ppen
traun stoa</w>
trau er
topograph isch</w>
tode stag</w>
to wnship</w>
to m
to ki
to ire</w>
tiefen psych
tie fe</w>
ti -
thera pie</w>
ther mal
theat a</w>
the oreti
th urn</w>
th en
territ orien</w>
ter t</w>
tenden zen</w>
ten -
temper atur</w>
temp l</w>
tele mark</w>
teil ten</w>
te ssin</w>
te es</w>
tau chen</w>
tan zen</w>
tan g</w>
tal- spess
tal-spess art-
tal-spessart- rad
tagor e</w>
tag blatt</w>
tabe llen</w>
ta stn</w>
ta ba
t scher
t rö
t rit
t lichn</w>
t licher</w>
t hai
t -</w>
süd tiro
sö l
sän gerin</w>
sächs ische</w>
sä ä
syn these</w>
sym posi
sur- seine</w>
sun stige</w>
sude ten
su d</w>
su chte</w>
stärk ste</w>
ständi gn</w>
städt ischer</w>
strö m</w>
stroß n
stri d</w>
stre u
straß n
stra f
stor m</w>
stol z</w>
stimm er</w>
stif ts</w>
stick ler</w>
stick l</w>
sti le</w>
steu er
ster ne</w>
ster b
stell vertre
stell n</w>
stei l</w>
ste jn</w>
ste d
start punkt</w>
standar d-
stadtzent rum</w>
stadttei ls</w>
stadt gemeinde</w>
stad t-
staat sober
sta bi
st in
st i</w>
st ent</w>
st 'n</w>
sso witz</w>
sso ur
ssi ons
spät gotische</w>
spru ch
spro du
spro che</w>
spring field</w>
sprin ger-verlag</w>
spre cher
sprachi ge</w>
sprach familie</w>
spo itn</w>
spit zweg</w>
spit z</w>
spirit u
spie ge
spel brunn</w>
sp än
sp oda</w>
sp in
sozialversicher ungspflichtig</w>
sozialva sicher
sozial n</w>
son -
sol chen</w>
so tto</w>
so ta</w>
so phie</w>
so me
so li
smart phon
skis pr
skispr ung-
skandina v
sitz e</w>
sin d
simon e</w>
sie gel</w>
sid lich</w>
si t
si ona</w>
si gen</w>
si em</w>
sho ws</w>
seri es</w>
sen dorf</w>
sel bach</w>
sej bst</w>
seel and</w>
seba sti
se zt</w>
se ms
se en
se e-
se ck
se chs
se bene</w>
sde ms</w>
sde me</w>
sci en
schü ler
schä fer
schwer e</w>
schw amm
schu h
schrifts y
scho w</w>
schluss stej</w>
schlos spark</w>
schlo ssene</w>
schle u
schle pp
scher horn</w>
schen kte</w>
schau platz</w>
schar f</w>
schaft lichen</w>
sch wie
sch ut
sch ing</w>
sch ell
sch do
sch berg</w>
sch ach
sch 'n</w>
sau gåb</w>
sand ra</w>
sam sung</w>
sal z</w>
sal on</w>
saint- pierre</w>
sacrament o</w>
sachsen -
s ó
s wi
s ven</w>
s ven
s ort</w>
s car
rück en
römisch- katholischen</w>
röll feld</w>
räu ch
rug by</w>
ru mpf</w>
ru ck
rr hen
roman ischen</w>
ro ter</w>
ro hr</w>
ro bin
robin son</w>
ro ad</w>
rin d
rie se</w>
rich -
ri o
ri ge</w>
ri ck
ri ad</w>
republi kan
reprin t</w>
religi on
relie fs</w>
rein hardt</w>
reihen folge</w>
reichs gau</w>
reich enbach</w>
rei sende</w>
rei mer</w>
region oi
rege lung</w>
referenzi mp
referenzimp lementierung</w>
reda ktion</w>
recht schreibung</w>
recht a</w>
re ssour
re sa
re p
re le
re kor
re k</w>
re gl</w>
rat zinger</w>
rat h
ram sau</w>
radi us</w>
ra y</w>
ra sp
ra pi
ra mt</w>
ra k
ra dl
r å
r einigung</w>
r ation</w>
quell text</w>
que jn</w>
quadrat kilometer</w>
pyren ä
pusch kin</w>
publi zi
pu a</w>
pt ling</w>
pt ist</w>
pseudon ym</w>
proze ss
prote stan
produ zent</w>
pro pst</w>
pro p
pro ko
privi le
privat e</w>
pri o</w>
por cius</w>
poln ischen</w>
politi ker
poet entaler</w>
poe sie</w>
po wiat</w>
po tem
plat ten</w>
plat te</w>
plan ung</w>
pioni ere</w>
pi ler</w>
physikali sche</w>
phon em
phili ppe</w>
ph y
pflau m
pflaum heim</w>
pfarr kirch</w>
pf und</w>
pf lu
pf l</w>
pf ad
pfad fin
persön lichkeit</w>
pau line</w>
paralle l</w>
par tner</w>
par ker</w>
par agua
par adi
palästinens ischen</w>
pader born</w>
pa kistan</w>
pa gne</w>
pa -
p es
p ani
ou est</w>
ot ti
osman ischen</w>
orts namen
orts -</w>
origen äu</w>
or den
ony sos</w>
oni ens</w>
on y</w>
on o
omo bon
omobon o</w>
olymp ischn</w>
okzitan ien</w>
oipha bets</w>
oi pn</w>
oi da</w>
offizi er</w>
offen en</w>
ober viechtach</w>
oa wat
o ö</w>
o xford</w>
o w
o pt
o mer
o ma</w>
o kin
o ff</w>
o bar
nutz n</w>
nutz en</w>
numm ern</w>
not re</w>
norwe gens</w>
nor r
nor m
nor damerikas</w>
nomansgem dn</w>
no w</w>
no u
no tt
no chri
niger- kongo
nieder ländischen</w>
nieder lande</w>
nieder lage</w>
ni r</w>
ni gel</w>
ni ens</w>
ni c</w>
ni bal</w>
ni ada
new s
neu hütten</w>
ne ws</w>
ne ut
nation alismus</w>
naci onal</w>
nacht s</w>
nachbar schaft</w>
nach n</w>
nach ad</w>
na zion
na s</w>
na r</w>
n z
n us</w>
n stein</w>
n dorf</w>
n -</w>
mück en</w>
mü h
mön chen
mönchen gladbach</w>
musik geschichte</w>
muada sproch</w>
mounta in
mountain bi
motor radrennfahrer</w>
motor en
moti v</w>
mol e
moa stn</w>
mo s
mo ir
mittl ere</w>
mittel s</w>
missi ons
mir jam</w>
mini sta</w>
min ne
min ga
middl meea</w>
mid del
mi l</w>
mey er
mexi co</w>
metropolit an</w>
metho de</w>
mer s</w>
mer km
mer haven</w>
men dri
mei stn</w>
mei le</w>
mehr an</w>
mediathek view</w>
mecklenburg- vorpommern</w>
meahr are</w>
me spelbrunn</w>
me s-
me ear
me d
maß bach</w>
maximili an
mat ischer</w>
mass ach
massach usetts</w>
mari on</w>
mari anne</w>
mar mor
mar c</w>
mar at
man en</w>
man chen</w>
main- rhön</w>
mai r</w>
maca u</w>
ma chten</w>
ma c</w>
ma ant</w>
ma -
läu fig</w>
luft aufnahmen</w>
luft af
lu ca</w>
lothr ingen</w>
log ischen</w>
lo tte</w>
lo mä
lo d
liter ar
linn é</w>
lini en
lin s</w>
lin da</w>
lieder buch</w>
lie sl</w>
lie far
lie f</w>
lia gt</w>
li z
li ppi</w>
li es</w>
li erung</w>
li ck</w>
li adl</w>
leutn ant</w>
leu chtet</w>
letz tere</w>
leip ziger</w>
leip zig
lehr a</w>
led ger</w>
le se</w>
le ms
le hen</w>
le hen
le gendn</w>
lauf e</w>
lati um</w>
langua ges</w>
land schaften</w>
land -</w>
la ung</w>
la din
la bel</w>
l öff
l ung
künstler ische</w>
kün ste</w>
köni ge</w>
köl sch</w>
kö tzting</w>
kämpf er</w>
kämpf e</w>
ku wa
ku mman</w>
ku i
kt es</w>
kroati en</w>
kro wo
kro nach</w>
kro mbach</w>
krit isches</w>
kreis freie</w>
kp d</w>
kor re
konson antn</w>
konkur renz</w>
konfu zi
konfli kte</w>
kon takt</w>
komp ression</w>
komp et
komm ande
kom ischen</w>
kom ische</w>
kohl hammer</w>
ko st</w>
ko pp
ko pia
ko gel</w>
ko an</w>
ko ali
know- how</w>
kli mt</w>
klein ste</w>
klein schuster</w>
klei det</w>
kir sch
kind heit</w>
kin o</w>
kin esische</w>
ki tzingen</w>
kern stod</w>
kern stadt</w>
kern ort</w>
kerami k</w>
ke hrt</w>
kateg orien</w>
kar in</w>
kapitali smus</w>
kap ell
kali sch</w>
kal ten
kahl tal-spessart-rad
kaffee haus</w>
kabar et
k ō
k und</w>
k s-
k lus</w>
k h
jä ger
jubilä ums</w>
ju dn</w>
johan nis
jid disch</w>
je des</w>
jaz z-
jahr gänge</w>
ja y</w>
j å
j ing
islam ischen</w>
is län
is le</w>
ir ene</w>
interess ant</w>
intel ligen
instru ment
institut s</w>
initi ative</w>
ingeni eur</w>
informations zentrum</w>
industrie gebiet</w>
industrie betriebe</w>
indon esien</w>
in stall
in gs
in formi
in folge</w>
ima ge</w>
id s</w>
id an</w>
ia hm</w>
i ller</w>
i f</w>
i erten</w>
i eren</w>
i ch
i atz</w>
i at
hü ttner</w>
höher e</w>
höch st
hö r</w>
hä tt</w>
hu si
hu b
hr a</w>
hon dl
hol t
hoam at
ho bo
hn lich</w>
hip-ho p</w>
hilde brandt</w>
hil l</w>
hier für</w>
heu t</w>
hess ischen</w>
her schel</w>
henn ing</w>
henger sberg</w>
hel den
heirat en</w>
heim -
hei ke</w>
hebrä ischn</w>
hebrä ische</w>
he er</w>
he ath</w>
haupt mann</w>
haupt figur</w>
haupt bahnhof</w>
hau ber
hauber ri
harra ssowitz</w>
har ry</w>
haptsäch li</w>
han -
hal le
haf ten</w>
haf t
haar mann</w>
ha id</w>
h als</w>
gür tel</w>
gü ter
gän ger</w>
gurun si
gu er
gsto it</w>
gso mt
gs etz
grün deten</w>
grön land</w>
groß heubach</w>
groß em</w>
gri ffen</w>
grenzüber schrei
grei ft</w>
greg ation</w>
gre sstn</w>
graphi a</w>
got ischen</w>
gol f
go ur
go g
gog gol
gn is
glie dad</w>
glei t
gl ü
gkei t
gitar rist</w>
gin us</w>
gi tter
gi r
gewer b
gestal ten</w>
gesamt werk</w>
gere cht</w>
ger e</w>
geor gia</w>
geor gi
gen s
gen re</w>
gen ga</w>
gemeinde freien</w>
gemein t</w>
gem e</w>
gehör ten</w>
gedächt nis
ged ul
gebir g</w>
geb räuch
geb m</w>
geb 'n</w>
ge trennt</w>
ge steht</w>
ge schehen</w>
ge ological</w>
ge fän
gazette er</w>
gar nis
gar misch</w>
gar de</w>
ga s
g wun
g weiht</w>
g ung
g nie</w>
g mein
g m
g lä
g le</w>
g in</w>
fü aht</w>
fähr t</w>
fuß ball</w>
ful da</w>
frü chte</w>
fräul ein</w>
fränk ischer</w>
frucht fleisch</w>
fru cht</w>
fron t
fried rich-
freu de</w>
frein d
frei willige</w>
fre e
französ isch-
franzo sen</w>
franken höhe</w>
frank reichs</w>
fran ck
foign dn</w>
foa hn</w>
flü ssi
flug zeuge</w>
flu s
flu gs
flo ssn</w>
flag gn</w>
fl ut
fir m
fie scherhorn</w>
fi arung</w>
ferr ari-
feri en
fer tig</w>
fau lbach</w>
fal ken
fa un
fa schi
fa mil
f us</w>
f on</w>
f fix</w>
f ert</w>
ex pan
ex klave</w>
evangeli sch</w>
est n
es heim</w>
erweiter ung</w>
erst veröffentlichung</w>
erschein ungs
ers atz</w>
errei chen</w>
ero tische</w>
erläut erungen</w>
ergän zt</w>
ergol ding</w>
erfol gen</w>
er z</w>
er richten</w>
er richt
er nest
er kennt</w>
er g</w>
er enden</w>
entwickl ung
ent z</w>
ent ums</w>
ent ston
ent sprach</w>
ent hal
ent er
enga gement</w>
eng ine</w>
en is</w>
emilia- romagna</w>
em pi
ell s
elektro nik</w>
el be</w>
eishock ey</w>
eisen burg</w>
eiropa stroßn</w>
einwohn ern
einfluss reich
ein zug</w>
ein stellung</w>
ein kauf
eigent ü
eigent um</w>
ei gane</w>
ei g'n
ei d
egy ptn</w>
ed da</w>
eawähn ung</w>
e ss</w>
e schen
e sch
e pos</w>
e o
e ger
e chter</w>
e bel
dy namik</w>
durchschnitt liche</w>
durchschnitt lich</w>
durchge sehene</w>
dunkl en</w>
du o</w>
du fer</w>
du den
dro g</w>
drit tel</w>
dreiß g
dor o</w>
do meni
do me
do ges
do ana</w>
dn isse</w>
dl än
disku ssion</w>
diri gent</w>
din o</w>
digi tale</w>
differ enti
diet mar</w>
dien ten</w>
die go</w>
di onysos</w>
di l</w>
di ch
di c
den t</w>
den d</w>
dekan at</w>
de ville</w>
de tai
de part
de mon
de ll
de j</w>
de ep</w>
dat a</w>
dan zer</w>
dal l</w>
dal en</w>
dag mar</w>
da i</w>
da hin</w>
da gali</w>
da b
d und</w>
d ul
d rü
d rin
d olo
d licher</w>
d bei</w>
cul tur
cu sto
cu en
coun ci
com piler</w>
com pa
co me
co do
ck mann</w>
ci vi
cht ungen</w>
cht lich</w>
chron ologie</w>
christ kin
chin esisch</w>
chia va
che -
char lotte</w>
ch st</w>
ch o</w>
ce k</w>
cat herine</w>
castelnuo vo</w>
casp ar</w>
carolin a</w>
car bon
can no
cal led</w>
ca val
ca pit
ca mi
c orte</w>
c le</w>
c is
c er</w>
c em
c c</w>
c au
bäuer lichen</w>
byzan z</w>
but ten
bus linie</w>
burg h</w>
bur go
bundes länder</w>
bundes land</w>
bundes anstalt</w>
buff alo</w>
buch s</w>
buch es</w>
bu chner</w>
bu cher</w>
bu a</w>
bson das</w>
bs unda
bs p</w>
brücken au</w>
brun nen
broo k</w>
bro ad
brent a</w>
bre merhaven</w>
bour g-
bor ussia</w>
bor ou
bor g
bol l
bo id</w>
bo ard</w>
blü te</w>
blo tz</w>
blo ch</w>
bischof ssitz</w>
biogra fi
bi tter
bi tt</w>
bi stü
bi p</w>
bi eten</w>
bi chler</w>
bezi a
beweg ungen</w>
bevejkarungs dichtn</w>
betrie bs
bet t</w>
bet ont</w>
bestimm tn</w>
bestimm t</w>
bestehen d</w>
bess ere</w>
beschäfti gung</w>
besch ränk
berühm te</w>
bern stein</w>
bern ardo</w>
berlin -
berg ischen</w>
ber tol
benedikt iner
ben berger</w>
bellin zona</w>
beli ab
bel le</w>
bei spü
behör den</w>
befrei ung</w>
befesti gte</w>
bedro gd</w>
bedeutend ste</w>
bede ck
beat les</w>
bearbei tung</w>
be zo
be z</w>
be wo
be tz
be standen</w>
be siedlung</w>
be j
be hr
be hin
be geg
be ek</w>
be dient</w>
be ch
be c</w>
be ach
bau ung</w>
bar er</w>
ban ken</w>
bal du
baden- württemberg</w>
bach /
bach -</w>
ba ss</w>
ba s</w>
ba ptist</w>
ba ma</w>
b sitz</w>
b ling</w>
b jer
b ant
b ana</w>
autor n</w>
autono mie
austro pop</w>
aust ausch</w>
ausge tragen</w>
aus foaht</w>
aus bruch</w>
august us</w>
aufgle st</w>
auf hebung</w>
auf gabe</w>
au rach</w>
au gen</w>
ati vn</w>
ati co</w>
at t</w>
at i</w>
at hl
astrono m</w>
as gard</w>
artikel n</w>
arn dt</w>
armen ien</w>
arm y</w>
arkan sas</w>
argum ent</w>
arbeits lo
arbeit eten</w>
ar z</w>
ar z
ar vier</w>
ar min</w>
ar men</w>
ar me</w>
ar k</w>
ar ia</w>
ar d-
ar berg</w>
ar ad</w>
antarkt is</w>
ant wer
anschluss stelle</w>
anony me</w>
ann alen</w>
ani m
anger er</w>
aner kennung</w>
anda manen</w>
and -
an um</w>
an n</w>
an ismus</w>
an glo
an gli
amts sprache</w>
ameri ka
am mer</w>
alpha -
allo a</w>
all gäu
ali stische</w>
ali g
alex ander
ala bama</w>
al er</w>
al bre
akti ven</w>
akti ve</w>
ak sum</w>
air craft</w>
af 'n</w>
adje ktiv</w>
ad vent
abge schlossen</w>
abenteuer liche</w>
aben berg</w>
ab ro
ab e</w>
a strid</w>
a sp
a so</w>
a sche</w>
a post
a o
a gr
a al
a 22</w>
978- 34
9- 1</w>
9 2-
8 9
8 ,5</w>
78 8</w>
70 .000</w>
7- 0</w>
6- 6</w>
6- 2</w>
6 50</w>
54 4</w>
53 3</w>
5 3-
44 7</w>
4- 5</w>
4 27</w>
4 .000</w>
39 9</w>
3-9 30
3-59 6-
3-4 99-
3, 1</w>
3 2.
3 11</w>
3 10</w>
3 ,5</w>
22 .
200 9/
20 .
2- 1</w>
197 0er</w>
196 0er</w>
19 18
18 1</w>
18 11</w>
17 30</w>
16 34</w>
15 90</w>
15 29</w>
14 9</w>
14 8</w>
14 .
13 5</w>
13 53</w>
10 ,
0 °</w>
0 a</w>
0 .</w>
/ wien</w>
. m</w>
- reihe</w>
- et-
– mailand</w>
е д
š ek</w>
ş er
č er
über see
über gangs
über gang</w>
ü ban
österreich er</w>
österreich -
ör tliche</w>
öffent lichkeit</w>
öffent licher</w>
ény i</w>
é t</w>
ç a</w>
å land</w>
å gt</w>
äuß erer</w>
äthi op
än der
ä ä
ä ure</w>
á namo</w>
ß ts
zz ano</w>
zy lin
zwo a
zwies l</w>
zwe ck</w>
zwe ck
zusammen setzung</w>
zuag heari
zua griff</w>
zua dem</w>
zu n</w>
zu m
zu i</w>
zu fluss</w>
zu an
zir ka</w>
zi vi
zi tten
zitten felden</w>
zi tiert</w>
zi ster
zister zi
zi mbri
zi lla</w>
zi eren</w>
zi b</w>
zer fall</w>
zentral er</w>
zen e</w>
zen -
zeit i</w>
zeich entri
zei ts
zei ten
zei len</w>
zei le</w>
ze het
za un
za ire</w>
z' weg'n</w>
z wi
z kit</w>
z ist</w>
z ing</w>
z empl
z ell
yste ms</w>
yos hi
y u</w>
y eni</w>
y ari</w>
y an</w>
x on</w>
x ler</w>
x ho
würz burger</w>
wä r</w>
www. nestroy.at/nestroy-stuecke/
wur zel</w>
wolf -
wol ken
wohn haus</w>
wo od
wo mit</w>
wo it</w>
wo ch</w>
wo a'n</w>
wis se</w>
wir th
wir r
wies er</w>
wick s</w>
wi mmer</w>
whi te</w>
west ufer</w>
west ufa</w>
west licher</w>
wes 'n</w>
werk zeug</w>
weltkultur erbe</w>
wel chem</w>
weiber sbrunn</w>
weib liche</w>
wechsel t</w>
wean ali
we sn
we li
we hle</w>
we a'n</w>
wat z
war ad</w>
wan e</w>
wam u</w>
wall stein</w>
wall fahrt</w>
waldro de</w>
wal des</w>
wai zendorf</w>
wa und
wa in</w>
wa che</w>
w än
w rede</w>
w r
w ladimir</w>
w g</w>
w aun</w>
vä ster
vui kan</w>
vorles ung</w>
vor wiegend</w>
vor spiel</w>
vor schlag</w>
volley ball
volks wirtschafts
voi gt</w>
virtu elle</w>
violonc elli</w>
vin zenz</w>
viktori aland</w>
viel fal
vielfal t</w>
vi r</w>
vi ih</w>
vet tel</w>
ves u
verzeich niß</w>
verwen den</w>
verwand tschaft</w>
verwaltungs einheit
verwaltungseinheit /wartung/
verwaltungseinheit/wartung/ iso</w>
versor gung</w>
vermess ung</w>
vermer kt</w>
verlän gerung</w>
verlu ste</w>
verke hren</w>
verk auf</w>
verehr ung</w>
ver sö
ver se</w>
ver s
ver pflich
ver ordnung</w>
ver mei
ver l</w>
ver hin
ver größ
ver geben</w>
ver bund</w>
ver abschie
veno aks</w>
ve ster
ve lino</w>
vawoitungs siez</w>
vau deville</w>
vat er
var allo</w>
vamea kt</w>
vam ess
vall ée</w>
valaff d</w>
val u
vakea s
vaf oi
va zi
va prio</w>
va lie
v- atlas</w>
v á</w>
v enz
v d
v ani
utt ner</w>
ut er</w>
us- bundes
ursprün ge</w>
ur teilung</w>
ur sache</w>
ur hg</w>
unterschie dliche</w>
unter titel</w>
unter euerheim</w>
unter eschenbach</w>
untasti tzung</w>
untaschie dliche</w>
unta queat</w>
uni x
ungspro je
ung stechnik</w>
ung ssystem</w>
ung arisch</w>
unbekann ten</w>
unbe din
un va
un k</w>
un bekannte</w>
umfa ssen</w>
um kreis</w>
ueberreut er</w>
uali tät</w>
u. k</w>
u hr
u ganda</w>
u er</w>
u 6</w>
tö tet</w>
tö chter</w>
tä ufer</w>
tä u
tä gliche</w>
tz a
tza hl</w>
tur bin
turbin e</w>
tten dorf</w>
tt n
tt i</w>
tschech ei</w>
ts ä
tru ppen
trond heim</w>
tro st
trin k
tri angol
triangol o</w>
tren ker</w>
trei bt</w>
treff el
treffel stein</w>
tre ue</w>
trau m
tran spar
tra min</w>
tra m</w>
tra gung</w>
tra gische</w>
tra cht</w>
touri sten</w>
tor a</w>
topo graphie</w>
tomol o</w>
tolsto j</w>
to uren</w>
to tal</w>
to ba</w>
tit ular
tiak n</w>
ti v
thür ing
thi er
there si
theater museum</w>
theater manuskript</w>
theat am
theatam anu
theatamanu skript</w>
the ob
theob ald</w>
th é
th ra
th el
tex ti
ter ro
ter ra</w>
tei s</w>
techn isch</w>
te s-
te o
te a</w>
taus end
taun us</w>
tauber bischof
tauberbischof sheim</w>
taschen buchverlag</w>
ta ktik</w>
t åg</w>
t å
t te
t schul
t rän
t re</w>
t ort
t ni
t han
südosta sien</w>
südo st
süd lichste</w>
süd deutscher</w>
sü ß</w>
sü dafri
syste me</w>
synago ge</w>
symp honi
symphoni ker</w>
sy no
sur rey</w>
sui te</w>
su ssex</w>
su se</w>
stär kn</w>
städ ten
studen t</w>
stu ben</w>
ström ungen</w>
strukt ur
stro ss</w>
stro nd</w>
streif züge</w>
strei k</w>
straubin g-
strat eg
stra t</w>
stra ss
stra fe</w>
ston e
stoi ber</w>
sto b</w>
stimmi g</w>
stift ungs
stick ln</w>
sti mm</w>
sti a</w>
steu ern</w>
ster m</w>
stemp el
stellvertre tender</w>
stein ach</w>
stehen den</w>
stech mücken</w>
ste hung</w>
ste h
stauf en</w>
stau sch
stati stischen</w>
stan is
stal l</w>
stadtre cht</w>
stadt museum</w>
stad ter</w>
stad l</w>
staats bahn→</w>
staat n</w>
sta gs</w>
st ün
st un
st ran
st r</w>
st isches</w>
sso w</w>
ssen es</w>
ss us</w>
ss ball
spä t</w>
spro chen</w>
spro cha</w>
sprech an</w>
sprach raum</w>
spra xis</w>
spra chen
sport vereine</w>
spiel ten</w>
spi agl</w>
sper le</w>
spei se
spe y
spani ens</w>
span ischer</w>
sp inner
sozialvasicher ungspflichtig</w>
sozial geschichte</w>
sozial demokratische</w>
sor gt</w>
sonnen systems</w>
son ja</w>
son ate</w>
so y
so tz
so ko
so fort</w>
so dass</w>
so ch</w>
slo h</w>
slaw ischn</w>
skel ett</w>
ska ja</w>
sk å
sk rie
sitz en</w>
sing ular
sin ni
sin gu
singu lar</w>
sil via</w>
sil ve
sii damerika</w>
sign al-
sig is
sier ra</w>
sie gt</w>
sie beck</w>
sid lichste</w>
sicht bar</w>
sich erung</w>
si tt
si m</w>
si dafrika</w>
shutt le
servi ce</w>
seri en
seri ate</w>
seren ade</w>
ser bien</w>
sep her
sepher l</w>
sen det</w>
sen at</w>
sel m</w>
sel ber</w>
sei tige</w>
sei lle</w>
sehn sucht</w>
se villa</w>
se venoaks</w>
se qu
se mi
se ktor</w>
se ht</w>
se gn</w>
se dla
sedla c
sedlac zek</w>
sco tt</w>
sco poli</w>
schü la</w>
schön see</w>
schär ding</w>
schwei gen</w>
schwe dn</w>
schwarz kopf</w>
schwan en
schröt lings
schro tt</w>
schriftstell er
schrifts ystems</w>
schrift steja</w>
schrie m</w>
schrei m</w>
schnu d
schnitt punkt</w>
schn ur
schmie de</w>
schmidt-den gler</w>
schmi tz</w>
schmerzen smann</w>
schlo g
schlei er
schleier bara
schlaraf fia</w>
schir m</w>
schil ling</w>
schie ß
schi en</w>
schel verlag</w>
schau n</w>
schaft liche</w>
schaberna ck</w>
sch wal
sch rän
sch met
sch lan
sch dorf</w>
savo yen</w>
san tar
sammel blatt</w>
saint- nicolas</w>
sa w
sa ss
s v
s uttner</w>
s und
s na
s her
s feld</w>
römisch- katholische</w>
römisch- katholisch</w>
ruper ti
ruper t</w>
rund fun
rund fahrt</w>
ruhe stand</w>
ru den
roß bach</w>
rothen fels</w>
roi 'n</w>
ro vi
ro gner</w>
ro drenn
rodrenn foahra</w>
ro den</w>
rich ter
ri vi
rhet or
rhein ischen</w>
revolu tion
renn fahrer</w>
renn er</w>
rem lingen</w>
rein schrift</w>
rei chtum</w>
regl n</w>
regiarungs beziak</w>
regi ster</w>
rechte ck
recht lich</w>
rec lam
re t</w>
re posi
re lea
re hau</w>
rattel sdorf</w>
rat h</w>
ran o</w>
ral ph</w>
raj on
raben stein</w>
ra in
r hom
quin t
qui jo
quijo te</w>
quartu cci</w>
quali tät</w>
qu ö
qu erung</w>
qu alt
pött mes</w>
py ron</w>
pun kro
pun k
pu mu
pu ff
prü fung</w>
prü f
prälu dium</w>
prä zi
provin zin</w>
prophe zei
prop stei</w>
programmi a
profi le</w>
produ ktionen</w>
pro pri
propri et
pro ce
pro -
privat n</w>
privat besitz</w>
prinze ssin</w>
prie ster</w>
preuß ischen</w>
presse mittei
pressemittei lung</w>
presiden tn</w>
pre cht</w>
pra et
pp berg</w>
posi tions
por tierung</w>
por sche
popul är</w>
poppen lauer</w>
pon gau</w>
polit ischn</w>
polit isch-
pol ka</w>
po stu
po et</w>
plän en</w>
plur al
ple a
plat tn</w>
plat on
plan ck-
planck- institut</w>
pla y
pla r</w>
pin z
pin ako
pinako thek</w>
pi rat
pi le</w>
pi el
pi a</w>
phäno mene</w>
phäno men</w>
philli p</w>
phil ologie</w>
phi l</w>
phi a</w>
pha se</w>
ph u
ph a</w>
pforr kiach</w>
pfoi z</w>
pflan ze</w>
pf el
peters dorf
pet ra</w>
pet ers</w>
per si
pea saun
pea k
peak ba
peakba gger
pe on
pe king</w>
pe er</w>
paw li
pawli cki</w>
pau l-
pat ho
pat erno
partna schoft</w>
par i
par co</w>
par at</w>
palest rina</w>
pal ast</w>
pa r</w>
pa pp</w>
pa pa</w>
pa ola</w>
p k
p ino</w>
p hö
phö ni
p es</w>
p ello</w>
p c</w>
p ad
p 5</w>
p 3</w>
owa hoib</w>
ou x</w>
otti lien</w>
ot ta
ostti mor</w>
ost antarktischn</w>
ost antarktischen</w>
orts lexikon</w>
origenäu manuskript</w>
ori enti
organiz ation</w>
ordn ungspoli
ordn ungs
or scha</w>
or ni
orni tho
or gnè</w>
or en
or dn</w>
or d
oper n</w>
op tik</w>
on t-
on dare</w>
olog ischn</w>
ol les</w>
ol lem</w>
ol la</w>
ok ta
oi gmo
oi bn</w>
offen bar</w>
oberau lenbach</w>
ober st
ober sinn</w>
ober lauf</w>
ober egger</w>
ober ammergau</w>
oba hoib</w>
ob d</w>
oan zi
oa ling</w>
o ver
o va</w>
o ur</w>
o stu
o sti
o sser</w>
o se</w>
o mb
o ke
o gem</w>
o di
o bt</w>
o be
nächst gelegene</w>
nutz a</w>
numer us</w>
noti zen</w>
nord westliche</w>
nord land</w>
non ano
nonano l</w>
noch g
noch a</w>
nobel preisträger</w>
noa destli</w>
noa damerika</w>
no chn</w>
nikol ai</w>
nieder österreichischen</w>
nieder sachsen</w>
nich olas</w>
ni mm
ni ls</w>
ni ka</w>
ni co</w>
ni ck</w>
ni amberg</w>
new ton</w>
neu siedler</w>
neu ro
neu este</w>
neu ere</w>
nei gung</w>
nei d
nei bau</w>
neg ativ</w>
natür lichen</w>
natur schutz</w>
natur e</w>
nat o-
nass ach</w>
nas hua</w>
namens geber</w>
nachge wiesen</w>
nach schla
nach mit
nach lass</w>
na zaire</w>
na w
na hen</w>
n ole</w>
n n
n ing</w>
n in
n ers</w>
n buag</w>
mün ze</w>
mün z</w>
möglich st</w>
mö cht</w>
mär chen
myster i
mut maß
muslim ische</w>
musi c
munici pio</w>
mu skul
mp 4</w>
mounta in</w>
mor sa
moni ca</w>
monats schrift</w>
mon ologe</w>
mon olog</w>
mol tke</w>
mol kenberg</w>
mo selle</w>
mo sel</w>
mo cha</w>
mm enthal</w>
mitter dorf</w>
mitt lung</w>
mitsubis hi</w>
mitglie ds
mitglie der
mit glia
missi ssi
minda heit</w>
min i</w>
min h</w>
min dd</w>
min as</w>
militär- max-
militär-max- joseph-
middloi ta
michel rieth</w>
mia ßn</w>
mi sst</w>
mi ra
mi ke</w>
mi erte</w>
mexikan ischen</w>
met alle</w>
merkm ale</w>
mer o
mer kur
men den</w>
mel pa</w>
mel burg</w>
mehr heit
mehr erer</w>
meg lichkeit</w>
meeres spiegel</w>
meear es
medizin ische</w>
me sser</w>
me sser
me m
me li
me hl
me dina</w>
me da</w>
mb le</w>
may r-
may r
maximili ans</w>
max- planck-institut</w>
max vorstadt</w>
mau n</w>
mau l</w>
mat ter
mat hilde</w>
maser u</w>
markt -
mark grafen
mar x-
mar seille</w>
mar que
mar ine
mann heim
mang fall
man -
mal i</w>
main- donau-
main-donau- kanal</w>
magi er</w>
ma ßen</w>
ma s
ma ko
ma il
ma hl
ma cos</w>
m. h</w>
m ür
m y</w>
m te</w>
m on</w>
m isch-
m einem</w>
m berger</w>
lær dal
lux or</w>
lu po
lu chter
lour des-
lor enz
lomä us</w>
lokal bahn</w>
lo w
lo vi
lo sn</w>
lo ko
lo ki</w>
lo is</w>
lo gik</w>
lo fo
lo ck</w>
ll erie</w>
live -
literat ua</w>
literat ua
linux- libr
linux-libr e</w>
linux- distribution</w>
lingui stische</w>
lin zer</w>
lin ka</w>
lin dau</w>
lin -
lieb haber</w>
lie sing</w>
lich sde</w>
lib p
lia cht</w>
li vin
li mes</w>
li ma</w>
li ll
li ck
li cen
li ban
li ano</w>
leu chtt
leu cht
let ten</w>
les ung</w>
lei tete</w>
leben dige</w>
le wis</w>
le ske</w>
le ser
le o-
le k
le gen
le cco</w>
le ander</w>
lau tete</w>
lau te</w>
lau ben</w>
latein isch</w>
landschafts schutzgebiet</w>
landes gartenschau</w>
landes anstalt</w>
landes -</w>
land l</w>
land gericht</w>
lan z
lan ten</w>
lan den</w>
la ßt</w>
la v
la sst</w>
la cher</w>
la b
l é</w>
l är
kü he
kühe bacher</w>
kör ös</w>
kö st
kö mm
kä sperle</w>
kä mp
kur zen</w>
kunst halle</w>
kultur -
kuli ssen</w>
ku hn</w>
ku b
krü ger</w>
kräh winkel</w>
krä f
kro mmenthal</w>
kriti ka</w>
krit ischer</w>
kristi an
kri ag
kreuz ung</w>
krem nitz</w>
kre ml</w>
kraus s</w>
kra mer</w>
kor o</w>
kor n</w>
kopier schutz
konven tion
kontro lle</w>
kontinui er
kon stant
komö dien
komponi erte</w>
kompl ette</w>
komm entierte</w>
komm enden</w>
komi tees</w>
kolonial geschichte</w>
kol li
kohlha as</w>
ko tel</w>
ko sten</w>
ko sm
ko pie</w>
ko ol</w>
kno chen
knei ßl</w>
km ²
klär t</w>
klosterku ppel</w>
klo tz</w>
klo asta
kli p
kletter stei
klein -
klaus e</w>
klassi fikation</w>
klam pf
klagen furt</w>
kirchen musik</w>
kirchen gemeinde</w>
kir gi
kirgi si
kin ger</w>
kin er
kiner eich</w>
kin dler</w>
ki er</w>
ki en
kfz- kennzeichn</w>
kern ortes</w>
ken -nr</w>
kea pa</w>
karolin en
kar ungs
kar pat
kar o
kar a</w>
kapu zin
kapell meister</w>
kana dischen</w>
kana dische</w>
kais er-
kahl grün
kafka- handbuch</w>
kab ale</w>
k. u.k</w>
k á
k vin
k ort
k nor
k ling</w>
k les
k ischen</w>
k es
k ers
k auf</w>
k -verlag</w>
jähr liche</w>
jugend literatur</w>
jubilä ums
ju lie</w>
josef stadt</w>
jewei ligen</w>
jes u</w>
je sse</w>
jar os
jan eiro</w>
jakob sthal</w>
jako bs
jahres berichte</w>
jahr feier</w>
ja p</w>
ja gen</w>
j ö
j n
it sch</w>
is- id</w>
is ländische</w>
is a
inter views</w>
inter state</w>
ins äure</w>
ins g
insg samt</w>
innen ausstattung</w>
inn e</w>
inhoit saugåb</w>
industrie -</w>
indon esische</w>
indi anische</w>
in ver
in tri
in t</w>
in gs</w>
in ga</w>
in fini
in dem</w>
in da</w>
im ma
illu str
ign atius</w>
ia hn</w>
i- 95</w>
i p
i mmt</w>
i mera</w>
i gkeit</w>
i do
i den</w>
hör buch</w>
höhen zug</w>
höhen forschungs
höhenforschungs rakete</w>
höch stadt</w>
hö s
hö lle</w>
hö her</w>
hö g
häu ptling</w>
här tel</w>
häl tlich</w>
hä tte</w>
hyper pyron</w>
hut an</w>
hur ti
hun de</w>
hu ang</w>
hor nung</w>
hom burg</w>
holo fern
holofern es</w>
hollän dische</w>
hol te</w>
hoi z</w>
hoi b
hohen warth</w>
hof mühle</w>
hof liefer
hof -
hobo ken-nr</w>
ho pfen
ho mo
ho logie</w>
ho lla</w>
ho ben</w>
ho as
ho -
hn ungs
hl volle</w>
hj el
histori ka</w>
hinter gründe</w>
hin ta
hin rich
hil ger</w>
high lands</w>
hier i</w>
hi es
heu geign</w>
herzog tums</w>
herzo gs
herr scha</w>
herr lichkeit</w>
her wig</w>
her msdorf</w>
her mann
hendri k</w>
hen schelverlag</w>
hel ena</w>
hein richs</w>
heimat kunde</w>
heilig tum</w>
hei lk
hech stn</w>
he chn</w>
he ch</w>
he ag
haus halt</w>
hau tmann</w>
hau te-
hau t-
has linger</w>
har vard</w>
har mon
hans- gerd</w>
hans- dieter</w>
hand schriften</w>
hand ke</w>
han ss
han nes</w>
han na</w>
ham melburg</w>
ham d</w>
halten en</w>
hal ter</w>
hal m</w>
haff ner</w>
haf tigkeit</w>
haf ens</w>
hab s
hab i</w>
ha ß
ha und</w>
ha ss
ha s</w>
ha iner</w>
ha ig</w>
ha gen
ha gel
ha ag</w>
h y</w>
h etz
gü t</w>
gött lichen</w>
gött liche</w>
gå r
gär tn</w>
gul la
gui de</w>
guggen moos</w>
guant ánamo</w>
gua y
gu é
gu ss</w>
gu drun</w>
gu ck
grü mpel</w>
grä fin</w>
grä ber
groß -</w>
grin dungs
grin d</w>
gri ll
gri ag</w>
greß ten</w>
gress dn</w>
greg ori
gre tt
gre chnet</w>
graf isch</w>
gra mat
gra m
gra bowski</w>
gr aus
gott hard</w>
got te
goog le-
goethe -
go st
go m
gnu/ linux-libre</w>
gn olo</w>
gn is-id</w>
gmoavabindungs stroßn</w>
gmoavabindungs stroß</w>
gmo an
glo ppen</w>
gle bd</w>
glau ben
glauben s
gin gen</w>
gher n</w>
gesund heit</w>
gespro chene</w>
gesellschaft lichen</w>
gesell schaften</w>
ges änge</w>
gerva sio</w>
gertru d</w>
gertrau d</w>
gere chtigkeit</w>
ger not</w>
geord nete</w>
geogra phi
geodä sie</w>
genu g</w>
genossen schafts
general sekretär</w>
genau igkeit</w>
gen ü
gen annte</w>
gen -</w>
gemä ß
gemeinde rat</w>
gemein schaften</w>
gem ü
gej d</w>
gei sti
gei s</w>
gehör ende</w>
gegen wär
gegen satz</w>
gegen dn</w>
gefü hlvolle</w>
ged din</w>
gebor en</w>
gebir ges</w>
gebi age</w>
geb racht</w>
ge sp
ge schlossen</w>
ge ologischen</w>
ge ol
ge land</w>
ge hö
ge hd</w>
ge habt</w>
ge fär
ge fälle</w>
ge folgt</w>
ge flügel
geflügel te</w>
ge fahr
ge fa
gefa hr</w>
ge bet</w>
ge baute</w>
gast stätte</w>
gar y</w>
gar e</w>
gar c
garc ía</w>
gal lien</w>
gal ax
galax y</w>
ga za
ga stein</w>
ga i
ga be
g' sa
g y</w>
g wä
g w
g st</w>
g st
g schä
g schlossn</w>
g pl</w>
g me
g ischen</w>
g ischa</w>
g habt</w>
g ge
g be
fünf ter</w>
fün fte</w>
führ ungs
führ er
fü m</w>
fü ah
fö der
fär ö
fur th</w>
fu ssball
fröh lich</w>
fré dé
frédé ric</w>
friesen bach</w>
frie sland</w>
fri tsch</w>
frequ enz
frem den
frein d</w>
frei s</w>
frei heits
fre e</w>
franzö se
frank n</w>
fra gt</w>
fortgeschri ttene</w>
forschungsinstitu t</w>
format e</w>
for za</w>
for derungen</w>
for ce</w>
foi gendn</w>
foi g</w>
foah ts
fo ck</w>
flur namen</w>
flu ß</w>
flia sst</w>
fla geol
fla ch</w>
fisch weiher</w>
firm ware</w>
fin k</w>
fin f</w>
fin dung</w>
film -</w>
fili ale</w>
fiarstn tum</w>
ffen e</w>
fest gestellt</w>
fest gelegt</w>
fest es</w>
ferrari- bravo</w>
fer stl</w>
felsk li
fel de</w>
fei erte</w>
fei at</w>
fehl t</w>
fe yn
fe d
fe chter</w>
fe chenbach</w>
favor it
fass binder</w>
far b</w>
fall studien</w>
falklan din
falk land</w>
fal co</w>
fahr t
fa ir
fa hne</w>
f tige</w>
expan sion</w>
ex p
evangelisch- lutherische</w>
europ e</w>
eu gene</w>
eta ppen
et ten</w>
et on</w>
erz diözese</w>
ers on</w>
ers hus</w>
ers bach</w>
erklär en</w>
eri a</w>
ergol dsbach</w>
erfol gs
erbfolge krieg</w>
er zie
er i</w>
er götz
er forschung</w>
epp ing</w>
entwäss ert</w>
entwick el
entstan dene</w>
entfern ten</w>
ent würfe</w>
ent wass
ent re
ent he
enn o</w>
engel s</w>
end lich</w>
encyclo pädie</w>
en tier
en kel</w>
en e
empf an
emm erich</w>
em plar</w>
em eri
element ar
elekt ron
el a
eisenbahn -
eiropa stroß</w>
eingemein dung</w>
einge teilt</w>
ein richt
eig net</w>
eichstä tter</w>
eichen fürst</w>
eichen berg</w>
ei us</w>
ei ster</w>
ei h</w>
ei gsetzt</w>
ehr e</w>
ehemali gn</w>
edi tion
edi aba
ed ler</w>
eat on</w>
ear p</w>
eaf ol
ea hna</w>
ea -
e. com</w>
e vo</w>
e und</w>
e po
e h</w>
e g</w>
e dat
edat hy</w>
e con</w>
e ch</w>
e au
e .de</w>
dür fen</w>
dän ischn</w>
dä mon
dv ds</w>
durch ges</w>
dun kle</w>
dum ont-
dt v-atlas</w>
dsch i</w>
dru sus</w>
dres dner</w>
dor n</w>
don ia</w>
dokum ent</w>
do stäiung</w>
do ss</w>
do ss
do ms</w>
do mit</w>
do main</w>
do gri
do ch
dlin ski</w>
dl er
diözes an
distri ct</w>
dis ney</w>
dire ktion
dire k
din e</w>
dimen sion
dikt ator
die hl</w>
dic tion
dialekt ische</w>
di tion</w>
di ni
di gkeit</w>
di ck</w>
detai lli
der hof</w>
der ho
der e</w>
depar tement</w>
denkmäl ern</w>
denkm ale</w>
den nis</w>
den k</w>
dem entsprechend</w>
del ta</w>
dei x</w>
defini tion</w>
debat te</w>
de utet</w>
de tt
de lung</w>
de kret</w>
de kan</w>
de ci
dat las</w>
darstell er</w>
dan kt</w>
dal ane</w>
dago gik</w>
da vor</w>
da mois</w>
da mer</w>
d wor
d tn</w>
d rich</w>
d ni
d linger</w>
d j</w>
d habi</w>
d auer</w>
cu orgnè</w>
cro u
cre ußen</w>
count y
cort és</w>
corin thi
coo k</w>
con tro
con a</w>
computer genealogie</w>
col li</w>
co ver</w>
co l</w>
co dierung</w>
clu bs</w>
clon e
cla v</w>
cl ara</w>
cker l</w>
ci o</w>
ci lius</w>
chu ck</w>
cht eln</w>
christkin dl
chri s</w>
chin on</w>
chi a</w>
chemi ker</w>
char t
char les-
char i
cha plin</w>
cha os</w>
ch inger</w>
ch au
ces ena</w>
ces en
cer va</w>
cer re
cent ola</w>
cchi a</w>
castell amonte</w>
cast ro</w>
cart ell
car mina</w>
car low</w>
car l-
cam pus</w>
cam po</w>
cam pi
ca st</w>
ca ss
ca sa
ca -
c zy
c zer
c v</w>
bür o</w>
bü ros</w>
by dlinski</w>
bundes kanz
bul ga
buch -</w>
bu ss
bu ck
bu ar
bsun das</w>
bsua cht</w>
bräu che</w>
broo ks</w>
bron ze</w>
bri ga
bri e</w>
bri d
bri af</w>
breiten bronn</w>
breit kopf</w>
brei tung</w>
bre uer</w>
bre ton</w>
bre m
brau ereien</w>
brau chtum</w>
bra cht</w>
bouy ei</w>
bos l
bos co</w>
borou gh</w>
borgo franco</w>
bor is</w>
boo t
boo ks</w>
bo y</w>
bo sse</w>
bo s</w>
bo eing</w>
bo an</w>
blu me</w>
blu es</w>
blat tes</w>
bisch off</w>
bis sau</w>
bis s</w>
biografi en</w>
bilder buch</w>
bil le</w>
bil l</w>
bil dnis</w>
bil datlas</w>
bi zkit</w>
bi ch
bi at</w>
bi an
bi -
bezi ang</w>
bewu ßts
bevölkerungs entwicklung</w>
beton tod</w>
bet h
bestimm en</w>
beschrei bungen</w>
beru ht</w>
beri chtete</w>
berg bau</w>
berei t</w>
ber l
ber ing</w>
beo bach
benedikt in
ben der</w>
belie bt</w>
bela gerung</w>
bekaun nt</w>
begriff s</w>
beglei tet</w>
begegn ungen</w>
befesti gung</w>
beeinflu sst</w>
beam ter</w>
be wohnt</w>
be st</w>
be s
be merken
be kommt</w>
be hü
be herrscht</w>
be h
be gründete</w>
be er
be cker
be a
bay risches</w>
bau zeit</w>
bau werk</w>
batti sta</w>
basi l</w>
basi ad</w>
bartho lomäus</w>
baro cken</w>
bar ri
bar cel
ban toi
ban g</w>
balti more</w>
bal lade</w>
bal kan
bahn höfe</w>
ba zar
ba s
ba m</w>
ba da</w>
ba da
b wamu</w>
b len</w>
b ische</w>
b hutan</w>
b eine</w>
b ben
b be</w>
b aus</w>
az za</w>
auto strada</w>
auto mo
auto biographie</w>
auto bahnen</w>
ausläu fer</w>
ausgrab ungen</w>
ausge wählt</w>
aus züge</w>
aus sprache</w>
aus sicht
aus le
aus flugs
aus breitung</w>
aus baut</w>
auftra ge</w>
auf stie
auf führungen</w>
au sse</w>
au mt</w>
au m
au g</w>
au g
ation s</w>
ati k</w>
ateli er</w>
at ua</w>
at u
at ri
at ori
at n
at hu
at hos</w>
at hen</w>
as mus</w>
arti llerie</w>
arn ual</w>
arme e-
arme e
arm strong</w>
aren dal</w>
arbeiter bewegung</w>
arbei tern</w>
ar ran
ar ne</w>
ar is</w>
ar ei
ar ea</w>
aqui taine</w>
ap rü
anto ine</w>
anti o
anti kn</w>
anth ony</w>
annäher ung</w>
angol a</w>
angeli ka</w>
angel sberg</w>
ange lini</w>
ander son</w>
ander l</w>
and s-
an za</w>
an vazeichnis</w>
an te
an sä
an selm</w>
an on
an lag</w>
an ce</w>
an bauflä
an bau</w>
amo t</w>
amer ang</w>
ambro gio</w>
amali e</w>
am o</w>
am ing</w>
am er</w>
am al
alten buch</w>
alt nor
alpen vereins</w>
all tags
alig hieri</w>
alexand ria</w>
al lian
al ko
al ei
al be
ak ershus</w>
ai den
ai chach</w>
ager ola</w>
af o
aemili us</w>
ach sen</w>
ach n</w>
ach isch-
ac re</w>
ac ce
abthei lung</w>
ab şer
ab teilungen</w>
ab gebrochen</w>
ab b</w>
a x</w>
a w
a isch</w>
a ck</w>
a che</w>
a are</w>
a 3</w>
978-3-9 8
978-3-9 3
978-3- 15-010
90/ die</w>
9 6-
8 6
8 48
8 4
8 /i</w>
7- 2</w>
66 9</w>
6- 1</w>
6 50
6 5-
6 00
55 3</w>
53 4-
50 5
5- 9</w>
5- 6</w>
5- 5</w>
5- 15
5 koordinaten</w>
5 10
5 1
5 ,5</w>
4444 44
44 °</w>
40 .000</w>
4- 9</w>
4- 4</w>
4, 9</w>
4 2.
36 6</w>
33. 40
33 7</w>
30- 2</w>
3-9 26
3-8 60
3-8 28
3-8 25
3-8 22
3-8 03
3-45 1-
3-44 6-
3-4 34-
3- 9</w>
3- 2
3, 2</w>
3 50
3 20</w>
3 17</w>
3 1.
3 1-
3 00.000</w>
28 1-
25 3</w>
24 6</w>
23 9</w>
23 /
20 7</w>
20 3</w>
2- 2</w>
2 11</w>
2 .0
194 5–
19 4</w>
188 3</w>
187 4</w>
186 8</w>
18 8</w>
18 28</w>
18 14</w>
177 8</w>
177 3</w>
170 8</w>
17 75</w>
17 70</w>
17 5</w>
17 35</w>
17 1</w>
16 4</w>
16 48</w>
16 3</w>
16 2</w>
15 86</w>
15 6</w>
15 0-
14 7</w>
14 79</w>
14 6</w>
14 6
14 50</w>
13 –
13 8</w>
13 7</w>
13 77</w>
13 65</w>
13 3</w>
12 9</w>
12 49</w>
12 ,
115 8</w>
10 9–
10 -0
1- nonanol</w>
1- 7
1, 7</w>
1, 4</w>
1 180</w>
1 17-
1 15</w>
1 150</w>
1 13</w>
1 .0
017 0-
0- 00
0 ″</w>
0 6
/ s</w>
/ km²</w>
.de /
-ver l</w>
- en-
- -</w>
в а
št ina</w>
übri g</w>
über nimmt</w>
über liefer
über le
über geben</w>
über all</w>
österreich- ungarn</w>
ökonom ischen</w>
ökonom ische</w>
ö n
ó w
í k</w>
é ry</w>
è cle</w>
å len</w>
å cht</w>
äuß erte</w>
äu le</w>
ästhet ische</w>
är n</w>
ä ische</w>
ä i
ä a</w>
ß ler</w>
ß el</w>
zähl te</w>
zy klus</w>
zwei taus
zweitaus ende
zweitausende ins</w>
zwei er</w>
zwe cke</w>
zwan zig</w>
zuschau ern</w>
zusammen hän
zuasam ma</w>
zua sätz
zu fall</w>
zu at
zsam ma</w>
zoih reiche</w>
zo ologie</w>
zo in
zi mmern</w>
zi m
zi l</w>
zi el
zet tel
zettel träger</w>
zer o</w>
zentral afrikanische</w>
zen ti
zen sur</w>
zen hausen</w>
zen d</w>
zeitz eu
zeit weise</w>
zeit raum</w>
zei tn</w>
ze us</w>
zau ber</w>
za l</w>
za go</w>
za ga</w>
z wor</w>
z samm
z isa</w>
z ellen</w>
yor ker</w>
ylo r</w>
xi x</w>
x x</w>
x is
wö l
wär m
wähn ung</w>
wä id
wä chter</w>
wur n</w>
wu -
wrest le
wrestle mania</w>
wor s</w>
wor fen</w>
wol ken</w>
wol fen
wohn gebiet</w>
wo it
wo at
wo ans</w>
wittels bach
wissn schoftliche</w>
wissen swer
wissen s</w>
wissen s
wis s</w>
wis s
wirtschaf ds
wirk ungs
win ta</w>
win kl</w>
win g
wiesba dener</w>
wieder aufbau</w>
wiat schoft</w>
wiadi gkeitn</w>
wi ttenberg</w>
wi es</w>
wi ad
wettbewer be</w>
west küste</w>
wesen heit</w>
wer tes</w>
wer be</w>
wen dt</w>
welt raum
wejd weit</w>
weißen stadt</w>
weiter n</w>
wein heim</w>
weil heim</w>
weiber sbach</w>
weib lichkeit</w>
wei ßn</w>
wei das</w>
we ata</w>
we ar
we ab
water lo
war ts
war schau</w>
walser feld</w>
walde mar</w>
wal ser</w>
wal ker</w>
wal de</w>
wagn er
waf fen</w>
wachsen e</w>
wach stum</w>
wa y
wa k
wa hn</w>
vü ü</w>
völk ern</w>
vorzu gt</w>
vorge sehen</w>
vor wärts</w>
vor nehm
vornehm lich</w>
vor n</w>
vor aus</w>
vor -</w>
voll text</w>
voll mond
voll kommen</w>
volkswirtschafts lehre</w>
volks gruppe</w>
volks aufstand</w>
virgin ia</w>
vin stra</w>
vier ter</w>
vide o-
vi tus</w>
vi to</w>
vi ter
vi p
vip san
vipsan ius</w>
vi g
vi ck
vester ålen</w>
verän derte</w>
verteidi gungs
versu che</w>
verschw unden</w>
verschlüssel ung</w>
versch wör
vermess ungen</w>
vermess ung
verlor enen</w>
verlo bung</w>
verke hrt</w>
verbre chen</w>
verarbei tet</w>
verantwort ung</w>
ver zi
ver teilen</w>
ver samm
ver ni
ver mont</w>
ver letz
ver l.</w>
ver kün
ver hän
ver dienste</w>
ver brachte</w>
ver bot</w>
ver besser
ver an
ve d</w>
vatei di
vaschie dne</w>
var i</w>
valo ssn</w>
vali abt</w>
valen cia</w>
valaf f</w>
vaf i
vaf ass
vab and</w>
va schi
v ó
v än
v z</w>
v n
ut opien</w>
ut o-
ut a</w>
us- bundesstoot</w>
ursprin gliche</w>
urspr ungs</w>
urkun dli</w>
ur n
ur bino</w>
ur -</w>
unterschie dlichen</w>
unterneh ma</w>
unter richt
unter m</w>
unter haltung</w>
untaschie dlichn</w>
untaschie d</w>
untaschei dung</w>
untaschei dt</w>
unt an</w>
univer sum</w>
uni ons
ungspro ze
ungspro gramm</w>
unge wö
unge heuer</w>
ung sa
und /
unbe wohn
un zu
un sterb
un rat</w>
un mittl
un kte</w>
umfangreich es</w>
um gang</w>
ull ern</w>
ul y
ul tra</w>
ul la</w>
ul i</w>
ua f</w>
ua -
u- bahn</w>
u lanten</w>
u ar
tür ken</w>
tü r</w>
tü mer</w>
tä t
ty rrhen
ty n
tupí -gu
tupí-gu araní
tthe ma</w>
ts -
tro n</w>
tro g
trit te</w>
trin i
tri um
tri bu
treu mann</w>
trent in
treff n</w>
trauer spiel</w>
trans fer
tra gene</w>
tra fen</w>
tor on
toki o</w>
tode stages</w>
to w
to pf</w>
to mo
tomo yo</w>
to chta</w>
to al</w>
to -
tit' l
ti tels</w>
ti me-
ti gung</w>
ti ga</w>
thür ingen</w>
thu b</w>
theo dor
theater zettel</w>
th o</w>
tex te
texte di
ter ran
ter r
teilneh mer</w>
teil n</w>
techn ologien</w>
te ur</w>
te a
te /
taus ende</w>
tari f
tan gan
tangan ji
tal sperre</w>
tabe llen
ta ylor</w>
ta mien</w>
ta in
ta hara</w>
t wain</w>
t ul
t ti
t ta
t schu
t ro</w>
t li</w>
t l-
t isches</w>
t ingen</w>
t im</w>
t ein
t berg</w>
süd west-
süd tiroler</w>
sü chtig</w>
sø r</w>
sän ga</w>
säkul ari
syste matische</w>
symbo i</w>
symb ols</w>
symb ol
sun n
sulz bach-
sulzbach- rosenberg</w>
sul ph
substan tiv</w>
sua cht</w>
su mmer</w>
stück es</w>
stü tzt</w>
stö ße</w>
stär ker</w>
städte partnerschaft</w>
stä in</w>
studi at</w>
studen tischen</w>
stu hl
stu ck
strukt uri
stro phe</w>
streck d</w>
stre m
stre cken
stre bt</w>
strat or</w>
stod beziak</w>
sto ffen</w>
sto dra
stili sierten</w>
sti ck</w>
sten ga</w>
stein meier</w>
stein kreuz</w>
steier mär
stei gung</w>
ste ffen</w>
ste ff
ste at</w>
ste ar
stau mmt</w>
statisti que</w>
star tete</w>
star ben</w>
stan dor
stam t</w>
stam ma</w>
staf fa</w>
stadttei le</w>
staats minister</w>
staat sse
staatsse kre
staatssekre tär</w>
sta und</w>
st ro</w>
st rich</w>
st reng</w>
st ren
st ens</w>
ssel n</w>
ssel be</w>
ss u
spä test
spä te</w>
sprü che</w>
sprachi gen</w>
sprachi g</w>
sport liche</w>
sport ler</w>
spit zn</w>
spi x</w>
spezi alität</w>
spe kul
spa ß</w>
sp ür
sp lä
sozialversicher ungspflich
sozial wissenschaftliche</w>
sozial er</w>
sozial demokratischen</w>
sozial anthropologie</w>
son stigen</w>
son g</w>
son aten</w>
sommer spiele</w>
sol ches</w>
soiz burga</w>
sognenn tn</w>
softwar e-
so mme</w>
so m</w>
so l</w>
so bo
so atn</w>
smartphon es</w>
sla yer</w>
sla vischen</w>
skis prin
ski gebiet</w>
sk reis</w>
sizi li
sin ti</w>
siedel t</w>
sie h</w>
sido st
sicher heit
sicha heits
sibi rien</w>
si ón</w>
si ècle</w>
si v</w>
si ttenbach</w>
si mona</w>
si dest
si char
sh et
sey ch
serge y</w>
serge i</w>
sep tion</w>
sen s</w>
sen lis</w>
sen dling</w>
sen da</w>
sems rott</w>
semin ar</w>
sel l</w>
seit 'n</w>
seel en</w>
see fahrt</w>
sedi ment
seces sion</w>
se x</w>
se gen</w>
se gel
se d
se ah</w>
scu deri
scuderi a</w>
schütz en
schü tz</w>
schü tter
schwäb ischen</w>
schwest a</w>
schweizer ischen</w>
schwein furter</w>
schwei g
schweig gert</w>
schwe disch</w>
schwan dorf</w>
schu id
schu f</w>
schro nik</w>
schriftsy sdems</w>
schriftstell ers</w>
schriftstell a</w>
schrift liche</w>
schran ne</w>
schoft lich</w>
scho ff
schmet ter
schmerzen s
schle chte</w>
schla chten</w>
schla cht
schiff s
schiff fahrt</w>
schi cht
schi a</w>
schi a
schen ko</w>
schein lich</w>
schei d</w>
schauspü la</w>
schau m
schau a</w>
sch witz</w>
sch to
sch re
sch m
schm eller</w>
sch lå
sc ene</w>
saw yer</w>
sati re</w>
sat elli
sar a</w>
sar a
san si
san g</w>
sam er</w>
sal om
salom on</w>
sachsen hausen</w>
sa ß</w>
sa scha</w>
sa lier
sa hen</w>
s vet
s v</w>
s q
s nu
s mol
s m</w>
s lein</w>
s hel
s haus</w>
s ca
s berg
rü st
rö nt
rö ll</w>
rä ter
rut sch</w>
ruhi g</w>
rosn heimer</w>
ron de</w>
roman tik</w>
roman s</w>
roko ko</w>
rohr bach</w>
ro sen</w>
ro ll</w>
ro dach</w>
rinch nach</w>
rin o</w>
rin ger</w>
rin gel
rin ge</w>
ri vo
ri scher</w>
ri e</w>
ri ck</w>
rho dos</w>
rezen sen
rest lichen</w>
reson anz
reser viert</w>
reper toire</w>
reno viert</w>
rem brandt</w>
rele van
reichs stadt</w>
rei tet</w>
regi stri
regi o</w>
regen wald</w>
regel mäßige</w>
red witz</w>
rechts geschichte</w>
recht licher</w>
re sul
re sch</w>
re alität</w>
re aktion</w>
re akti
rau mes</w>
rat es</w>
ran i
ra sch</w>
ra pp
ra ms
ra bin
rabin dran
rabindran ath</w>
r â
r unden</w>
quell n</w>
quea d</w>
que st</w>
que ens
quadrat kilometern</w>
qu é
qu et</w>
qu ello
py r
pun kt
pumu ckl</w>
pu s
pu ch</w>
pt on</w>
ps holm</w>
präsen tiert</w>
propy lä
propylä en</w>
pro vi
pro ven
pro tein</w>
pro f.</w>
pri mus</w>
pri en</w>
pre ssi
pra xis
pra ger</w>
ppen berg</w>
ppel n</w>
portugi esischen</w>
port s</w>
port ra
por sche</w>
popul ation</w>
polit ischem</w>
po tamien</w>
po pst</w>
po mp
po in</w>
plä do
plädo yer</w>
plat eau</w>
plan egg</w>
pie ce</w>
pi lo
phonet ischen</w>
pho n</w>
philipp inen</w>
pfle g
pfar ramt</w>
pfaffen hofen</w>
pf en</w>
pet rus</w>
pergam on</w>
per t</w>
per len</w>
pen den
pe st
pe ar
pd f-
pazi fischen</w>
pazi f
pau l
pat mos</w>
partner stadt</w>
parti e</w>
partei en
param eter</w>
paragua y</w>
par á</w>
par th
pan zer</w>
palä on
pal at
pal ais</w>
paci fi
pacifi c</w>
pa sst</w>
pa pier</w>
pa kete</w>
pa ckt</w>
p å
p á
p um
p is</w>
p hr
phr y
p .
ou t</w>
ost-west- richtung</w>
ost afrika</w>
ortstei le
orts verzeichnis</w>
original partitur</w>
original manuskript</w>
origin als</w>
ori ert</w>
organisi ert</w>
organis ator
organ e</w>
ordn en</w>
orche sta</w>
oran ge</w>
or m</w>
or geln</w>
oper ette</w>
op ti
op position</w>
op hon</w>
online .de</w>
on schluss</w>
on en
on d</w>
olo s</w>
oller dings</w>
ol ms</w>
ol l
ol d
ol ais</w>
okto ba
ogfon ga</w>
offizie je</w>
offen barung</w>
oberau rach</w>
ober österreichischen</w>
ober ste</w>
ober er</w>
obal auf</w>
oaf o
o star
o sser
o mi
o me
o ist</w>
o hren</w>
o ft
o bo
o ber</w>
o ben
nå ch
numm eri
nu mi
nr .
nov ellen</w>
nordrhein- westfalen</w>
nord-süd- ausdehnung</w>
nord zypern</w>
nord wind</w>
nord we
nord bahn</w>
noch weis
noch ad</w>
noad ostn</w>
no h</w>
no cht</w>
niger-kongo -
nie de
nicol e</w>
nibel ungen
ni pe
neu ordnung</w>
neu enburg</w>
nead lichste</w>
ne st</w>
ne mann</w>
ne e</w>
ne ba</w>
natur wissenschaftler</w>
nati r
nati a
nachschla ge
nach ten</w>
nach kriegs
nach hal
na zar
na z</w>
na x
n da</w>
münchn a</w>
mü de</w>
mön ch
mö gen</w>
mär kte</w>
mä h
mä chtige</w>
mä chti
musikali sche</w>
musi kanten</w>
mundart lich</w>
moder ner</w>
mo u
mo sa
mo ment
moment an</w>
mo dern</w>
mo ckn</w>
mo asta
mm et
mittel franken</w>
mittel europa</w>
mitglia da</w>
mitgli ad</w>
mit einander</w>
mit arbeitern</w>
mit arbeit</w>
mississi ppi</w>
minne sota</w>
milan o</w>
mil ch
mies bach</w>
michi gan</w>
mi sser
mi ssen</w>
mi lo
mi lie
mi ert</w>
mi da</w>
meso potamien</w>
merce des-
mendri sio</w>
men ten</w>
mel and</w>
mel an
melan cho
meilen steine</w>
mehrheit lich</w>
medi z
medi um</w>
me ß
me zz
me ur
me moir
me e</w>
me a</w>
me a
maximilian s-universität</w>
mauri tius</w>
mathemati ker</w>
materi al
mat ti
mat the
mat erie</w>
mars hall</w>
markt breit</w>
mark n</w>
mar ti
mar schall</w>
mar ley</w>
mar ita</w>
manu skri
mans field</w>
mani toba</w>
mang fall</w>
man tua</w>
man dat
man d
mala wis
ma un
ma ppe</w>
ma o</w>
ma jo
majo r</w>
ma dn</w>
ma dei
ma dame</w>
m. b.
m ø
m äu
m ³
m ort
m gard</w>
m ell
mell rich
m chen</w>
m ama</w>
lück e</w>
löwen stein
lö st</w>
län gs
län de
ly n
luxem burgischen</w>
luther ischen</w>
luftaf nahma</w>
ludwig splatz</w>
lu i</w>
lou ise</w>
lor eto
lo y
lo tz</w>
lo is
ll more</w>
litz mannstadt</w>
litau en</w>
liss ab
lincol n</w>
lin gen
lie sing
lichten fels</w>
liby sche</w>
li ps</w>
li pp
li ne-
li gu
li ab</w>
leu ten</w>
leu t</w>
letz dn</w>
lett land</w>
let s</w>
leopol dina</w>
leng o</w>
len z</w>
len e</w>
len da</w>
leit bilder</w>
lei tha</w>
lei den</w>
lehr jahre</w>
leben dig</w>
le x</w>
le ster</w>
le ss
le hm
le gend</w>
le er
le e
lawin en</w>
lauren tius</w>
lauf ach</w>
lar in</w>
landwiat schoft</w>
lan s</w>
lan go
lan e</w>
lai fa</w>
lagun a</w>
la van
la ien</w>
la hn</w>
la ga</w>
la d</w>
la bor
l uth</w>
l und</w>
l p</w>
l ga</w>
l ari
kün digt</w>
kü mm
könig liche</w>
kö pfe</w>
kä fer</w>
kuwa it</w>
kur zer</w>
kur fürst</w>
kur fürst
kurfürst entums</w>
kunst mühle</w>
kultur gut</w>
kulin arischen</w>
kul t</w>
ku pfer</w>
ku mm
krü ppel
krä mer</w>
kron en</w>
krie ger</w>
krie g
[...]
